#Parameter# /_0 {10,8} 1281 ZERO_GRAD
+4.31812793e-01 +2.44050935e-01 -2.86594629e-01 -3.00106585e-01 -3.24411362e-01 +5.19321024e-01 -1.44904345e-01 -2.92142212e-01 +2.55448282e-01 +4.66287971e-01 +1.49614826e-01 +3.25549245e-01 -3.89612377e-01 +3.70641388e-02 +5.28595030e-01 +4.55760658e-01 +3.20136845e-01 -3.51144284e-01 -3.49675536e-01 -3.18055600e-02 -2.39850029e-01 +4.72428322e-01 +3.80718738e-01 +4.56053197e-01 -2.93116947e-03 -5.87884307e-01 +9.69175920e-02 -3.89363497e-01 -9.16558784e-03 +1.98419139e-01 -3.99896443e-01 +3.02678376e-01 -2.53827989e-01 +5.50749123e-01 +4.52349544e-01 +5.07917881e-01 -1.45816505e-01 -3.31232905e-01 +4.69510257e-01 -5.42417169e-01 +3.46695125e-01 -5.23793817e-01 +4.98327464e-02 -5.32634139e-01 -2.56829619e-01 +2.62281030e-01 +1.57391131e-02 -3.56224388e-01 -3.50515664e-01 -3.18840355e-01 -4.57445651e-01 -3.61969203e-01 +2.08445296e-01 +2.55122781e-01 +1.58876032e-01 +1.66181669e-01 -4.10998553e-01 -4.06230778e-01 +1.73440024e-01 -4.91085351e-02 -5.51584005e-01 +1.30405426e-01 +1.39382571e-01 +4.23779756e-01 -5.06750047e-01 +3.77670527e-01 +4.94277149e-01 +3.05510283e-01 -3.35011780e-01 +1.82657868e-01 -2.08326787e-01 +2.95300707e-02 +4.26067680e-01 -3.81064862e-01 -3.95705283e-01 -3.88432771e-01 -2.83126533e-01 -9.18859690e-02 -1.56653047e-01 +1.88868001e-01 
#Parameter# /_1 {10} 161 ZERO_GRAD
+2.28439681e-02 +3.99550974e-01 -5.05239181e-02 -6.00086041e-02 -3.18215579e-01 +5.00060737e-01 -3.56482148e-01 +7.14942813e-02 -3.52994762e-02 -1.99156404e-01 
#Parameter# /_2 {10,10} 1601 ZERO_GRAD
-1.35931611e-01 +1.13797911e-01 -5.29238999e-01 +4.44006413e-01 +3.72526884e-01 +2.04925880e-01 -3.63306135e-01 +2.08147883e-01 -3.14519644e-01 -4.71357435e-01 +2.21659586e-01 -2.12684542e-01 +5.07971823e-01 +1.58358723e-01 +1.47792697e-01 +1.28696695e-01 -1.08108938e-01 +3.09951633e-01 +4.46565747e-01 -3.41508538e-01 +1.25732198e-01 +3.61158639e-01 +3.60544145e-01 +7.20926672e-02 -1.36566803e-01 +2.23108623e-02 +3.75371844e-01 +6.28687516e-02 -1.72454357e-01 +3.98451984e-01 +3.83143216e-01 +5.23223460e-01 +1.42210871e-02 +3.48390162e-01 +3.90642166e-01 +2.68905354e-03 +3.50798279e-01 +7.44336843e-01 -1.24119818e-01 +1.96002334e-01 +2.31908500e-01 +4.98550475e-01 -2.62815375e-02 +1.97127610e-01 -4.69043523e-01 -2.86963791e-01 +1.38269626e-02 -1.21286213e-01 +2.10657701e-01 +1.12310253e-01 -1.94715962e-01 +2.28154972e-01 -1.95662439e-01 -4.10519719e-01 -1.37925982e-01 +5.15083611e-01 +4.30449635e-01 +6.08910732e-02 +4.61729050e-01 +4.34796840e-01 +4.55355287e-01 -2.00625397e-02 -3.35757613e-01 +5.80673814e-01 +4.04036075e-01 +6.58964336e-01 +7.98126280e-01 +6.21848047e-01 -4.62405592e-01 +3.65949839e-01 -3.79192710e-01 -3.80608320e-01 +6.83726609e-01 +2.09939688e-01 -1.34316385e-01 +3.15541804e-01 +4.01390970e-01 +6.50619924e-01 +1.86839029e-01 +3.21391851e-01 +4.44830775e-01 +2.90304780e-01 -1.25853971e-01 -2.13519126e-01 -4.79842514e-01 -1.41975671e-01 -1.42516166e-01 -1.44803990e-02 -2.64338374e-01 -1.43946230e-01 -2.59396911e-01 +2.07684729e-02 -2.10893705e-01 +1.52643204e-01 +6.58635616e-01 -1.17780603e-01 +1.41386673e-01 +3.79745930e-01 +7.25229606e-02 +3.14147174e-02 
#Parameter# /_3 {10} 161 ZERO_GRAD
-5.83348945e-02 +2.72192270e-01 -1.77832589e-01 +1.63383245e-01 -3.01074684e-01 +1.99722890e-02 +8.76979887e-01 +8.42135668e-01 +5.56367457e-01 +2.33491957e-01 
#Parameter# /_4 {10,8} 1281 ZERO_GRAD
-5.26085556e-01 -1.15466928e+00 -8.23047698e-01 +1.12053692e+00 +9.53995049e-01 +1.54873565e-01 +2.66154319e-01 +1.03781775e-01 +3.95904601e-01 -3.39954436e-01 +3.20620060e-01 -7.29595375e+00 -7.78955841e+00 +7.98383713e+00 +3.27908635e+00 -1.08956826e+00 -4.62041795e-01 +2.61094761e+00 -2.03730655e+00 -5.42054224e+00 -1.53676495e-02 +7.55690157e-01 +3.78970116e-01 -9.15733337e-01 -6.49479449e-01 +6.11143351e-01 -3.84526193e-01 +1.17056601e-01 +9.26414490e-01 +5.15753567e-01 +5.29679179e-01 -1.61738209e-02 +8.19915235e-02 -8.17985237e-02 -1.45620748e-01 -3.15529794e-01 +9.67274681e-02 +2.25588784e-01 -1.23500198e-01 -6.28254056e-01 -4.65131223e-01 +2.82272488e-01 +3.34186643e-01 +4.27620500e-01 +1.75249889e-01 +2.25086376e-01 +2.19198748e-01 +3.44201513e-02 -2.32135847e-01 +1.55078575e-01 -4.85491827e-02 -9.49447393e-01 -6.81166887e-01 -1.36566326e-01 +1.04767621e+00 -7.70399928e-01 -2.67905533e-01 -1.94240496e-01 -1.02299047e+00 -9.25256014e-01 -8.24442685e-01 +3.10962260e-01 +8.78663838e-01 -2.83176154e-01 -4.03773427e-01 -1.94985867e-01 +1.20980166e-01 -2.11186156e-01 -5.77505589e-01 +4.76755440e-01 +4.70788509e-01 +1.45273268e-01 -6.20297417e-02 +3.62022638e-01 +4.34613116e-02 -1.11799192e+00 -8.30130577e-01 +2.76548624e-01 -1.03862035e+00 -2.14943420e-02 
#Parameter# /_5 {10} 161 ZERO_GRAD
-1.66895151e-01 +1.11512375e+00 +8.15535665e-01 -1.50316143e+00 -4.42250103e-01 +1.12729311e-01 -5.68652689e-01 -7.93760836e-01 +4.99560535e-01 +7.45998621e-02 
#Parameter# /_6 {10,10} 1601 ZERO_GRAD
-5.72522432e-02 +3.98220211e-01 +2.40720719e-01 -3.85244370e-01 -4.81956936e-02 -8.12624812e-01 +5.19926071e-01 +3.97350520e-01 -3.44388962e-01 -8.62090707e-01 +7.00705171e-01 +6.28189862e-01 -8.87395516e-02 -3.25650573e-01 +6.19772226e-02 -1.76608145e-01 -9.53851283e-01 -2.33863258e+00 -6.60119057e-01 -8.72230649e-01 -3.75187844e-02 +5.24374366e-01 +3.81943762e-01 +1.07545413e-01 -4.44399744e-01 -2.18496174e-01 -1.41774487e+00 -2.34734082e+00 -1.19165428e-01 -1.19062923e-01 +4.06631202e-01 +3.23853314e-01 -1.93532556e-02 +2.04360560e-02 +3.15798074e-01 +1.82413563e-01 +1.30555177e+00 +2.88077974e+00 -2.40206674e-01 -6.20360196e-01 +3.03428352e-01 -2.99979270e-01 +4.07287896e-01 -2.21847534e-01 +4.04735655e-02 -4.72681552e-01 +1.49292088e+00 +4.21347231e-01 -6.08588994e-01 -4.27600205e-01 +6.63779557e-01 +7.10054576e-01 +5.74083328e-02 +4.82019454e-01 +3.62696260e-01 -8.05959225e-01 -1.06878018e+00 -7.67971158e-01 -9.48671699e-01 -8.64790499e-01 +1.79527119e-01 +6.47258937e-01 +5.17715514e-01 +6.49865210e-01 -9.73399282e-02 -6.05461001e-01 -4.65137631e-01 -1.80316970e-01 -2.04384819e-01 -7.35563114e-02 -2.24738382e-03 +5.59874475e-01 -3.60978395e-01 +2.81416863e-01 +1.05960213e-01 -1.38482511e-01 +5.58549225e-01 +7.50166893e-01 -1.01401460e+00 -4.53378171e-01 +1.97740361e-01 -2.79444724e-01 -3.63340229e-02 +4.27508019e-02 +3.82596165e-01 -2.27335960e-01 -6.51288152e-01 -2.50844288e+00 -8.44470978e-01 -4.90320563e-01 +5.77651143e-01 +6.00463688e-01 +2.21062809e-01 +5.30952334e-01 -4.17399347e-01 -4.08414215e-01 -1.27403438e+00 -1.68232584e+00 -2.91656733e-01 -5.40492654e-01 
#Parameter# /_7 {10} 161 ZERO_GRAD
+8.16544294e-01 +2.32215092e-01 +3.66537988e-01 -4.64979410e-02 -2.52078742e-01 -3.46286178e-01 -5.54415099e-02 -9.94757712e-01 -8.99719775e-01 -1.02672243e+00 
#Parameter# /_8 {1,10} 161 ZERO_GRAD
-1.92807281e+00 -1.72153652e+00 -8.21048796e-01 -1.15026379e+00 -9.10169005e-01 +2.70105571e-01 +5.64106798e+00 +1.47832403e+01 +1.73268092e+00 +2.13957906e+00 
#Parameter# /_9 {1} 17 ZERO_GRAD
-1.07954903e+01 
#Parameter# /_10 {5,3} 241 ZERO_GRAD
-2.06019950e+00 -1.80794525e+00 -3.03253317e+00 -1.67679882e+00 -3.36195827e+00 -2.46505186e-01 +5.92044353e-01 +1.05748601e-01 -9.05609131e-01 -5.70165038e-01 +1.53770852e+00 -2.32274890e+00 +1.38037765e+00 -2.80157614e+00 +1.47391307e+00 
#Parameter# /_11 {5} 81 ZERO_GRAD
-1.72280157e+00 -1.60119891e+00 -1.34620905e+00 -1.94401276e+00 -1.27993011e+00 
#Parameter# /_12 {5,3} 241 ZERO_GRAD
-3.28001648e-01 +9.88178030e-02 +8.69780302e-01 -3.94447982e-01 +1.45641938e-02 -4.30840671e-01 +5.71317554e-01 -4.84227687e-01 -3.13125968e-01 -1.62427455e-01 +4.42160547e-01 +2.52476931e-01 -5.35917521e-01 +4.53544855e-01 +2.29032069e-01 
#Parameter# /_13 {5} 81 ZERO_GRAD
+2.78733802e+00 +2.66549683e+00 +2.94826674e+00 +3.03755164e+00 +2.74384975e+00 
#Parameter# /_14 {5,3} 241 ZERO_GRAD
+3.46827567e-01 +5.52869081e-01 +3.18877608e-01 +5.54814219e-01 +5.48830926e-01 -4.26691353e-01 -3.42629343e-01 -3.31668824e-01 +1.21501833e-01 -7.79630303e-01 +4.13961411e-01 -6.26399517e-01 +4.11543906e-01 +4.45200875e-02 +1.74283460e-02 
#Parameter# /_15 {5} 81 ZERO_GRAD
+2.02003574e+00 +1.61945629e+00 +1.80549145e+00 +2.00423479e+00 +1.75690544e+00 
#Parameter# /_16 {10,5} 801 ZERO_GRAD
-4.86742616e-01 -2.25718036e-01 -9.62304398e-02 -5.11665940e-01 +1.24913141e-01 -3.55941147e-01 -1.04889619e+00 -1.65761447e+00 -5.04711449e-01 -5.67055285e-01 -7.10653782e-01 -3.05715322e-01 +2.99145859e-02 -1.21914424e-01 -8.12674165e-01 -1.05698240e+00 -1.55532944e+00 -1.18354285e+00 +2.71743208e-01 -5.27470529e-01 +1.62254885e-01 -4.18412238e-01 -6.29147947e-01 -1.99576840e-01 -5.27289212e-01 -2.13725865e-01 -1.02755499e+00 -1.43486941e+00 +4.40861940e-01 -7.35163152e-01 +1.39222473e-01 -6.36577904e-01 -3.38659227e-01 +1.44154187e-02 +1.46882585e-03 -4.18591499e-01 -1.17559099e+00 -2.07689190e+00 +4.12313119e-02 -5.92197835e-01 -4.01919007e-01 +2.12998211e-01 -2.49963123e-02 +8.57904032e-02 -3.71789634e-01 -3.33156645e-01 -1.85208154e+00 -2.08667946e+00 +4.31154460e-01 +9.72945318e-02 
#Parameter# /_17 {10} 161 ZERO_GRAD
-4.29599553e-01 -9.49267507e-01 -9.91517723e-01 -4.77462083e-01 -6.59019411e-01 -1.00886071e+00 -2.15067410e+00 -2.04780769e+00 +3.35402191e-01 +2.27328539e-01 
#Parameter# /_18 {10,5} 801 ZERO_GRAD
-1.82755932e-01 +5.92500307e-02 -2.13004202e-01 -1.43646911e-01 -2.86922723e-01 -1.20797485e-01 -1.34141862e+00 -1.08370221e+00 -2.74538714e-02 +2.37250909e-01 -3.89212996e-01 -6.98874593e-01 -5.05902648e-01 -5.75324476e-01 -4.72692043e-01 -7.31254876e-01 -1.07280660e+00 -1.95944929e+00 +4.06991750e-01 +3.70361030e-01 +9.31583270e-02 -7.68305838e-01 +2.10477978e-01 +1.93777323e-01 -5.55385649e-01 -1.29644847e+00 -1.60651875e+00 -1.48532462e+00 -4.09938604e-01 -2.53004789e-01 -8.56845617e-01 -2.68849909e-01 -1.35048240e-01 -8.42101097e-01 -1.20373322e-02 -1.41772285e-01 -1.66206872e+00 -1.44564164e+00 -2.93913841e-01 +4.43125397e-01 -5.76434970e-01 -6.84405386e-01 -1.90127760e-01 -6.94334209e-01 -6.19945645e-01 -1.47626996e-01 -7.65138566e-01 -2.00973129e+00 +4.23674107e-01 -7.81187117e-01 
#Parameter# /_19 {10} 161 ZERO_GRAD
-7.63701141e-01 -3.95257771e-01 -9.33624923e-01 -9.35067058e-01 -1.58598185e-01 -4.88291800e-01 -2.28775287e+00 -2.20955634e+00 -4.42394614e-01 -4.60325032e-01 
#Parameter# /_20 {10,5} 801 ZERO_GRAD
-9.49643850e-01 -3.33378673e-01 -6.26564205e-01 +8.12983662e-02 -3.89827102e-01 -4.72966224e-01 -1.30324161e+00 -1.23744249e+00 +2.93918941e-02 +4.28238362e-01 +6.85921684e-02 -4.61446077e-01 +4.67500649e-02 -4.92668837e-01 -5.50831914e-01 -1.15312628e-01 -1.79211164e+00 -1.41656852e+00 -5.99359989e-01 +4.22796279e-01 -5.20006359e-01 +2.97105283e-01 +1.42910540e-01 -6.34212554e-01 -1.82510778e-01 -1.05265033e+00 -8.99335325e-01 -1.50742865e+00 +1.92513838e-01 -2.12108031e-01 -4.98127609e-01 -5.52613616e-01 -3.65862250e-01 -3.87291759e-02 +5.99781461e-02 -5.56684434e-01 -1.29999745e+00 -1.75992644e+00 +8.11795890e-03 +5.56901172e-02 -1.57913174e-02 +3.51063639e-01 -8.82568181e-01 -7.04717755e-01 -6.40084147e-01 -2.19284624e-01 -1.73736608e+00 -1.87315547e+00 -2.52251387e-01 -7.40602091e-02 
#Parameter# /_21 {10} 161 ZERO_GRAD
-1.62097111e-01 -6.52743995e-01 -6.19580507e-01 -9.64195013e-01 -2.76987642e-01 -8.83399606e-01 -1.94312036e+00 -2.37019110e+00 +2.08068658e-02 -2.65088249e-02 
#Parameter# /_22 {10,5} 801 ZERO_GRAD
-7.86322594e-01 -8.28689396e-01 +1.17908910e-01 -8.04023027e-01 -5.28682470e-01 +3.00458074e-03 -1.18013322e+00 -1.17089677e+00 +2.27027908e-01 -4.18403774e-01 -6.60423875e-01 -1.16129681e-01 -1.41293183e-01 -7.24420905e-01 -8.67193341e-01 -7.45271504e-01 -1.33255351e+00 -1.64749444e+00 +3.17299545e-01 +3.17088932e-01 -6.64809942e-01 +1.47888079e-01 -1.08466689e-02 -4.69762951e-01 -7.13483393e-01 -1.05986200e-01 -1.38001668e+00 -1.74414265e+00 +1.68419793e-01 +4.17792171e-01 -4.20543581e-01 +5.34163155e-02 -6.00319147e-01 +2.83326179e-01 -5.16497314e-01 -4.08380538e-01 -1.12338209e+00 -2.01884365e+00 -3.30386199e-02 -2.87118524e-01 +2.81358898e-01 -2.06165835e-01 +1.46727320e-02 -4.04368460e-01 -6.92313254e-01 -6.53378606e-01 -1.42498505e+00 -1.49457026e+00 +5.35303652e-01 +2.86174566e-01 
#Parameter# /_23 {10} 161 ZERO_GRAD
-5.18626511e-01 -3.52414638e-01 -1.09312534e+00 -3.50577116e-01 -1.91603228e-01 -7.30720282e-01 -2.31191897e+00 -2.13994670e+00 -3.64951730e-01 -2.78934628e-01 
#Parameter# /_24 {10,5} 801 ZERO_GRAD
-3.15927476e-01 -8.02786767e-01 -8.46146882e-01 -7.97981739e-01 -5.45469448e-02 -4.32922333e-01 -1.31441569e+00 -1.30711138e+00 +4.14873004e-01 +3.10856730e-01 -1.67890936e-01 -6.64122462e-01 -8.52074862e-01 -3.96688521e-01 -9.70721662e-01 -6.81546479e-02 -1.17727625e+00 -1.77564561e+00 +3.45204502e-01 -2.32251108e-01 -8.91387999e-01 -5.73425353e-01 -2.17430368e-02 +1.04582340e-01 -9.46995378e-01 -4.76159453e-01 -9.29353178e-01 -1.07344484e+00 +4.94627982e-01 -8.31157207e-01 -2.74295419e-01 +1.53850093e-01 +2.69744962e-01 -8.31517696e-01 +1.17914513e-01 -8.28534439e-02 -2.00288343e+00 -1.94939625e+00 -5.72458267e-01 +2.85972506e-01 -4.77594674e-01 -4.30966228e-01 -9.48458761e-02 +3.92884053e-02 -1.70967281e-01 -1.99524119e-01 -1.19612563e+00 -1.84037852e+00 +2.47816697e-01 -2.05809161e-01 
#Parameter# /_25 {10} 161 ZERO_GRAD
-1.62690729e-01 -2.72090197e-01 -6.53462827e-01 -4.76723641e-01 -4.72691834e-01 -9.43274081e-01 -2.15903568e+00 -2.20296574e+00 -8.24971572e-02 -4.89453264e-02 
#Parameter# /_26 {10,5} 801 ZERO_GRAD
+1.46471336e-01 -3.88832539e-01 -5.94687462e-02 -1.00540471e+00 -1.75278813e-01 -9.73832607e-01 -1.52113044e+00 -2.06536341e+00 +4.99222636e-01 -1.89741820e-01 -9.73336697e-01 +2.27772132e-01 -4.12238777e-01 -1.74982056e-01 -7.14940369e-01 -3.05063516e-01 -8.79270136e-01 -1.04606128e+00 +2.27983534e-01 +2.19619200e-01 +1.86336353e-01 -3.89494002e-02 -3.12538147e-01 +1.27751425e-01 -3.22518200e-02 -9.07424390e-01 -1.47375679e+00 -1.61689985e+00 +3.19103539e-01 +3.36783260e-01 -2.79047132e-01 -4.55355644e-01 -5.66168785e-01 +6.52477220e-02 -2.46802449e-01 -7.66886473e-01 -1.96569204e+00 -1.66143358e+00 +1.19465888e-01 +1.97804764e-01 -4.20756370e-01 -6.57597363e-01 -7.05016963e-03 -1.46476015e-01 +2.16013230e-02 +8.29090849e-02 -7.55080104e-01 -1.07638967e+00 +1.37540475e-02 +4.52340961e-01 
#Parameter# /_27 {10} 161 ZERO_GRAD
-4.72145766e-01 -2.79436827e-01 -8.40304434e-01 -5.13701677e-01 -1.04353440e+00 -3.79368067e-01 -2.17326093e+00 -2.67146564e+00 +4.29723680e-01 -2.81298488e-01 
#Parameter# /_28 {10,5} 801 ZERO_GRAD
+2.22174302e-01 -6.69643104e-01 +2.42132783e-01 +2.86796540e-01 +1.09846734e-01 -1.00336778e+00 -1.25682294e+00 -1.97665393e+00 +2.61208057e-01 -2.38856331e-01 -2.56811917e-01 -6.79748178e-01 +4.68919277e-02 -7.96824694e-01 -4.50757109e-02 -4.05222587e-02 -2.16529751e+00 -1.90180361e+00 -5.71530044e-01 -1.35055538e-02 +6.25323877e-02 +2.85320163e-01 -5.32453120e-01 -5.70218861e-02 -5.00402689e-01 -9.77174044e-01 -1.39607108e+00 -2.15840816e+00 +1.55363202e-01 -7.14388251e-01 -6.72223806e-01 -3.08266312e-01 -3.09223861e-01 -2.55447298e-01 -4.25150156e-01 +2.72478927e-02 -1.22204316e+00 -1.72939789e+00 -5.17826676e-01 -7.64822543e-01 -4.76262301e-01 -6.41886353e-01 -8.35846305e-01 -5.96268713e-01 +2.09450677e-01 -1.09541476e-01 -1.43128228e+00 -2.12565732e+00 -4.51998830e-01 -5.39398074e-01 
#Parameter# /_29 {10} 161 ZERO_GRAD
-9.07867610e-01 -6.66616380e-01 -4.65078391e-02 -7.63114929e-01 -7.53707886e-01 -1.17897308e+00 -3.10739875e+00 -2.83263850e+00 -5.15087962e-01 +2.12358028e-01 
#Parameter# /_30 {10,5} 801 ZERO_GRAD
-5.58890224e-01 -7.95437694e-01 -2.31860086e-01 -7.27707922e-01 -1.51003152e-01 -8.23306441e-02 -1.94219041e+00 -1.96194732e+00 +4.70721051e-02 -3.19189429e-01 -2.89045811e-01 -2.56980419e-01 -1.97602678e-02 +7.77235404e-02 +9.98532102e-02 -2.43263975e-01 -1.19326675e+00 -2.14555860e+00 +1.94223374e-01 +2.75394857e-01 -6.60101771e-01 -7.19741404e-01 -8.60064328e-01 -4.37044650e-02 -5.40443838e-01 -1.07030404e+00 -1.42624342e+00 -1.89530969e+00 +2.77821749e-01 +4.20550913e-01 +4.18796986e-02 -8.24837208e-01 -6.75116360e-01 -5.58730960e-01 -3.88757102e-02 -6.63516402e-01 -2.12965274e+00 -2.23183537e+00 -3.92186642e-01 -5.04372239e-01 -6.21116638e-01 +3.30903530e-01 -7.24986017e-01 -3.27140301e-01 -9.74534005e-02 -1.90672934e-01 -1.62823009e+00 -1.50740302e+00 -4.11619097e-01 -1.15413129e-01 
#Parameter# /_31 {10} 161 ZERO_GRAD
-4.43606764e-01 -5.51202476e-01 -5.25491297e-01 -2.95589030e-01 -2.15838596e-01 -7.08593726e-01 -2.56801534e+00 -3.02219319e+00 -4.68604803e-01 -4.86211419e-01 
#Parameter# /_32 {10,5} 801 ZERO_GRAD
-1.60455689e-01 -8.77011299e-01 -6.61399007e-01 -5.73411942e-01 -7.39875615e-01 -1.12025595e+00 -9.98351812e-01 -1.85683024e+00 +2.91925430e-01 +2.39450812e-01 +2.18796000e-01 -3.84099573e-01 +1.24044195e-02 +1.35873239e-02 +1.19072586e-01 -4.33759362e-01 -8.24463010e-01 -1.12478209e+00 +5.50919890e-01 +2.82959267e-02 -2.14696318e-01 +9.50691849e-02 -5.23119748e-01 -2.14000344e-01 -7.90589303e-03 -1.75567910e-01 -1.95357943e+00 -1.87147176e+00 -1.93425909e-01 -2.80279875e-01 -3.62731546e-01 -7.76243210e-02 -2.93175638e-01 -8.41800928e-01 -6.64385855e-01 +8.79322141e-02 -1.64593089e+00 -2.04509211e+00 -3.36969703e-01 -3.89689744e-01 -1.54680371e-01 -8.12417030e-01 +1.72670364e-01 +2.46473029e-01 -1.06875360e-01 -8.82415771e-01 -1.69805193e+00 -1.09267235e+00 +2.31153831e-01 +1.57573506e-01 
#Parameter# /_33 {10} 161 ZERO_GRAD
-4.11502033e-01 -2.06499368e-01 -8.99828911e-01 -6.63427114e-01 -9.97415543e-01 -8.85257065e-01 -1.87788880e+00 -2.18066859e+00 -1.98133305e-01 -4.64680165e-01 
#Parameter# /_34 {10,5} 801 ZERO_GRAD
-5.85583746e-01 +2.83811241e-01 -8.16121459e-01 -2.19459638e-01 -3.40079993e-01 -8.23805034e-01 -1.04170132e+00 -1.15751123e+00 +5.30310333e-01 +2.35896528e-01 -3.97190481e-01 -1.06495366e-01 -2.15055183e-01 +6.38172328e-02 -9.39316154e-01 -5.82919300e-01 -1.31744933e+00 -1.16782320e+00 -6.71410620e-01 -4.77603152e-02 -5.94993591e-01 +8.71348381e-02 +2.06189409e-01 -1.55899763e-01 -9.68477845e-01 -7.97233060e-02 -1.70919549e+00 -1.31944072e+00 -5.61263680e-01 -5.48173249e-01 -4.90918070e-01 +1.09802291e-01 -2.13256627e-01 +2.21093461e-01 -1.85977221e-01 -7.85150170e-01 -1.68537068e+00 -2.09580231e+00 -6.22328930e-02 +9.75213945e-03 -5.08610979e-02 +3.67544591e-01 -3.67147446e-01 -8.44813168e-01 -2.48970479e-01 -8.33159924e-01 -6.49363816e-01 -1.68973672e+00 -2.29396075e-01 -2.04317987e-01 
#Parameter# /_35 {10} 161 ZERO_GRAD
-1.77246004e-01 -6.65563822e-01 -7.41780639e-01 -6.13053501e-01 -2.78447151e-01 -6.43967271e-01 -2.27594471e+00 -2.40935326e+00 +3.77997875e-01 -7.43119597e-01 
