#Parameter# /_0 {10,8} 1281 ZERO_GRAD
-7.84453973e-02 +1.34601817e-02 +2.81599611e-01 -5.58753312e-01 +3.54109019e-01 -4.26903933e-01 +2.73234785e-01 -5.49863398e-01 +1.32017821e-01 -1.12638045e-02 +5.06232083e-01 -9.59142685e-01 +6.82862520e-01 -7.00165629e-01 -1.09967458e+00 -1.48347303e-01 +4.12945896e-01 -1.82356381e+00 +5.67222714e-01 +5.67071855e-01 -1.72134131e-01 +4.32709008e-02 +1.08195215e-01 -5.73109925e-01 +2.29789302e-01 +2.84637481e-01 +2.15087563e-01 +1.64668076e-03 +3.59527618e-01 -2.42032915e-01 -4.49461639e-01 +2.75382459e-01 -2.25610733e-01 +1.29102878e-02 +3.66958648e-01 -6.00587606e-01 -5.16757257e-02 +9.63667691e-01 -2.94964254e-01 +6.09356575e-02 -4.45929766e-01 -4.93429989e-01 +3.64082992e-01 +9.88690704e-02 +3.23215932e-01 +2.26261958e-01 -3.69037479e-01 -5.35874307e-01 +2.32983124e-03 +5.42741656e-01 +3.65804493e-01 -1.62151229e+00 +1.45594347e+00 +9.71937850e-02 -2.25962210e+00 -2.01354381e-02 +1.38981438e+00 -1.86399579e+00 +1.89726138e+00 -4.09768194e-01 +9.05894712e-02 +5.65389395e-01 -5.42266190e-01 +7.35517740e-01 +5.50799668e-01 -5.14794469e-01 -6.38065934e-01 +9.41888392e-01 -1.28144348e+00 -3.73071790e-01 +4.60595965e-01 -1.45292890e+00 +1.38296413e+00 -7.77038515e-01 -1.13970689e-01 +5.36819458e-01 +1.56075478e+00 -1.02417254e+00 +7.98458278e-01 -3.06105137e-01 
#Parameter# /_1 {10} 161 ZERO_GRAD
-2.80293375e-01 +1.81110442e-01 -1.66894704e-01 -5.99776506e-01 -3.44677061e-01 -2.02305943e-01 +3.27519834e-01 -7.74461389e-01 +6.01523101e-01 -3.10658425e-01 
#Parameter# /_2 {10,10} 1601 ZERO_GRAD
+6.30810440e-01 +3.29061270e-01 +3.58259715e-02 +6.32909060e-01 +5.67104481e-02 +5.13621092e-01 +1.97693929e-01 +4.64899093e-01 -5.71814239e-01 -4.58990276e-01 +6.11148000e-01 +5.45941234e-01 +9.53160107e-01 +2.96195805e-01 +4.36972052e-01 +8.60492170e-01 +1.83348909e-01 +5.39659441e-01 +1.64708936e+00 +8.60268027e-02 +3.04134578e-01 -1.40991971e-01 -7.50856996e-01 +5.20576537e-01 +7.72670567e-01 +3.12341060e-02 +5.16634323e-02 -3.65436941e-01 -1.45007312e+00 +3.20472062e-01 +2.16920376e-01 +7.48578727e-01 +6.20296657e-01 +4.89024043e-01 +6.44854724e-01 +4.50284958e-01 +5.66051185e-01 +1.62608102e-01 +7.07090318e-01 -4.95719612e-01 +4.40807521e-01 +8.44688952e-01 +1.08251250e+00 +4.15265471e-01 +5.17030537e-01 +1.55163899e-01 +5.53174734e-01 +5.47922999e-02 +1.77213454e+00 +4.21436071e-01 -4.36053336e-01 -7.53916055e-02 -1.65445179e-01 -2.33280927e-01 +1.45272344e-01 -2.99676508e-01 +5.61436832e-01 -1.31045133e-01 -7.23633468e-01 -4.34535265e-01 +5.95583260e-01 +4.71648395e-01 -6.99730873e-01 +4.50946450e-01 +8.72092545e-01 +6.52070105e-01 +3.66835922e-01 +2.31822833e-01 -1.43262231e+00 +1.53382599e-01 +5.73879123e-01 +3.67230237e-01 +5.80491960e-01 +7.86415994e-01 +8.65253620e-03 +1.99950874e-01 +5.01708865e-01 +5.77253222e-01 +1.73282576e+00 +4.87941682e-01 -4.87050772e-01 -1.46567956e-01 -7.17711627e-01 -2.22536609e-01 +4.20085758e-01 -2.17779249e-01 +5.49732029e-01 -4.20958668e-01 -1.51794565e+00 +1.72118861e-02 +5.28330684e-01 +4.06384617e-01 -3.25734228e-01 -4.21562821e-01 -1.89979747e-01 -4.14821535e-01 +4.55131739e-01 -4.46548969e-01 +4.19889912e-02 +4.52537566e-01 
#Parameter# /_3 {10} 161 ZERO_GRAD
+2.76906461e-01 +1.20484985e-01 -5.42447805e-01 +1.61317512e-01 +9.95303810e-01 +1.39544979e-01 +7.69928277e-01 +4.42638606e-01 -3.73413116e-01 +4.13771272e-01 
#Parameter# /_4 {10,8} 1281 ZERO_GRAD
+9.17406464e+00 -3.34287715e+00 +6.39525771e-01 -1.75946188e+00 +1.28747320e+00 -4.01644975e-01 -9.47263718e-01 +1.91463804e+00 +3.80319381e+00 +5.35608768e+00 -6.96242905e+00 +1.96111717e+01 -1.18411036e+01 +7.59791183e+00 -1.82757053e+01 +3.78217626e+00 +1.38817358e+00 -1.68615627e+01 -1.57557421e+01 -2.20743275e+01 -1.52170673e-01 -1.94342399e+00 -9.78545368e-01 -1.23238671e+00 -3.26805294e-01 -2.01549482e+00 -1.37525690e+00 +6.56726599e-01 +6.11695409e-01 +1.05305684e+00 -5.99535942e-01 -1.99468747e-01 +8.98827493e-01 -5.50039150e-02 -8.37683797e-01 -9.88905355e-02 -4.47673976e-01 +1.03241205e+00 +1.00333369e+00 -3.44321221e-01 +1.84179470e-01 +1.19184315e+00 +3.27620536e-01 -2.29311180e+00 +3.35204415e-02 -1.83306634e+00 +1.96692097e+00 -1.74324885e-01 -4.96208891e-02 -2.69502938e-01 -1.38979107e-01 +1.29661560e+00 +8.21272492e-01 -4.01117742e-01 +8.37953389e-01 -1.44707000e+00 +2.03801133e-02 +4.77425098e-01 -4.08261150e-01 +1.07310191e-01 -3.56919289e-01 -2.14954749e-01 +2.09128231e-01 +4.14297849e-01 +8.11984897e-01 -2.65633315e-01 -2.51974297e+00 +1.62159160e-01 +7.11658746e-02 +1.64047435e-01 -7.64619946e-01 -3.70781481e-01 +2.15630457e-01 +3.61446947e-01 -1.09151594e-01 +5.67630649e-01 +5.73193192e-01 -2.62659907e-01 -1.69667393e-01 +3.87886524e-01 
#Parameter# /_5 {10} 161 ZERO_GRAD
-9.33315884e-03 -6.00598907e+00 -8.71976793e-01 -2.58481503e+00 +2.68116415e-01 -1.67798364e+00 -1.87894678e+00 +2.05256850e-01 +4.95538890e-01 +1.85059428e+00 
#Parameter# /_6 {10,10} 1601 ZERO_GRAD
-3.10120940e-01 -3.13653380e-01 -3.99743378e-01 -3.95904571e-01 -5.27185202e-01 -5.95762551e-01 +3.33690345e-02 -4.31478053e-01 -2.27559686e+00 -1.14742601e+00 -2.52664626e-01 -4.89403695e-01 -1.95604652e-01 -3.98890495e-01 -3.55921268e-01 -3.07317913e-01 -4.79504585e-01 -2.37400517e-01 +1.59868932e+00 -6.32947907e-02 -3.07004094e-01 +2.02347845e-01 -4.57347721e-01 -6.66783929e-01 -1.13997304e+00 -5.13193905e-01 +4.13929075e-02 -4.13508415e-01 -1.20108569e+00 -5.44980407e-01 +2.15082064e-01 -5.06447732e-01 -1.64800078e-01 -5.80746770e-01 -4.68793780e-01 -5.17960191e-01 +1.57170832e-01 -6.67304456e-01 +1.03318942e+00 -3.92150640e-01 +7.93701410e-02 -1.04962528e-01 -1.77613810e-01 -4.66822058e-01 -4.58407015e-01 -2.59315670e-01 +1.89399913e-01 -5.60391724e-01 -1.59567595e+00 -8.96080256e-01 -3.94167364e-01 -5.85892260e-01 +8.72825012e-02 +1.08766370e-02 -3.43213156e-02 +3.21625233e-01 -3.59723091e-01 -5.38171470e-01 +6.71569109e-01 -9.80474055e-01 -5.39143503e-01 -5.27709246e-01 -1.80941969e-01 -4.80168872e-02 +3.11074331e-02 +9.40163508e-02 -2.49118075e-01 -5.12036026e-01 +9.46202755e-01 -5.23324788e-01 -5.57348788e-01 -2.95316577e-01 -3.49322319e-01 -4.95134830e-01 -1.47337660e-01 -7.25512862e-01 -5.98518252e-01 -4.65957522e-01 -1.29540110e+00 -8.02581310e-01 -3.00428178e-02 -7.76134431e-01 -3.89044762e-01 -1.41822740e-01 -4.14477289e-01 -5.42740285e-01 -2.26982996e-01 -4.54816788e-01 -1.07053375e+00 -9.72589314e-01 -4.59332556e-01 -3.59760731e-01 +2.82751113e-01 -4.94848907e-01 +7.63185844e-02 -5.50102592e-01 -4.72615749e-01 -7.27976561e-01 -1.86959100e+00 -7.79175401e-01 
#Parameter# /_7 {10} 161 ZERO_GRAD
-1.38697791e+00 -1.29516900e+00 -1.82080030e+00 -7.06867278e-01 -1.54204512e+00 -1.21732712e+00 -1.13378394e+00 -6.46903217e-01 +7.48976469e-01 -7.85900712e-01 
#Parameter# /_8 {1,10} 161 ZERO_GRAD
-2.73744106e-01 -1.01976264e+00 -5.05431712e-01 +4.88496959e-01 +2.25241214e-01 +1.90545321e-01 +4.80042845e-01 +3.38266015e-01 +1.96688576e+01 -1.53173730e-01 
#Parameter# /_9 {1} 17 ZERO_GRAD
-1.32628021e+01 
#Parameter# /_10 {5,3} 241 ZERO_GRAD
-1.75390606e+01 -1.24939947e+01 -1.77438545e+01 -1.44885454e+01 -1.36169777e+01 -3.22108412e+00 +3.05884194e+00 -2.32961512e+00 +1.27181971e+00 +2.17074132e+00 +9.60423470e+00 -5.63261700e+00 -8.10843086e+00 +7.28552866e+00 -4.42763424e+00 
#Parameter# /_11 {5} 81 ZERO_GRAD
-1.25891936e+00 -1.23211575e+00 -9.81998265e-01 -1.21776891e+00 -1.14583015e+00 
#Parameter# /_12 {5,3} 241 ZERO_GRAD
+1.94850564e-01 +4.53868836e-01 -7.12585032e-01 +3.89040947e-01 -6.44314468e-01 +2.79217988e-01 +9.47529003e-02 -4.40140590e-02 -1.07304603e-01 +3.36156785e-01 -9.42090034e-01 +2.76371539e-01 +3.51379365e-01 -1.32504134e-02 -5.81007302e-01 
#Parameter# /_13 {5} 81 ZERO_GRAD
+3.02167726e+00 +3.41054463e+00 +3.49029875e+00 +2.92884827e+00 +3.25064468e+00 
#Parameter# /_14 {5,3} 241 ZERO_GRAD
+6.35420442e-01 -4.73004639e-01 -4.63369638e-01 +1.86591953e-01 +1.90277442e-01 +7.60430396e-01 +6.29980639e-02 -4.76397455e-01 +7.13852286e-01 -7.94020176e-01 +2.10214943e-01 -2.03448638e-01 -9.79832113e-02 +4.59998965e-01 +1.35013416e-01 
#Parameter# /_15 {5} 81 ZERO_GRAD
+3.42832923e-01 +1.62180257e+00 +1.80530941e+00 -1.02694082e+00 +2.10697126e+00 
#Parameter# /_16 {10,5} 801 ZERO_GRAD
-7.44867384e-01 -6.31210744e-01 +1.07854187e+00 -1.15732563e+00 +2.12906814e+00 -1.41624108e-01 -4.96878862e-01 -9.35876667e-01 -3.83517337e+00 +2.05875292e-01 -6.89164400e-01 -3.68166864e-01 +1.13443995e+00 -8.93630862e-01 +1.12075663e+00 -2.91825324e-01 -4.28839087e-01 -9.46450457e-02 -2.91934228e+00 +3.62086535e-01 -6.60830319e-01 -5.77080250e-01 +6.47828460e-01 -1.07182395e+00 +1.29227185e+00 +2.54606813e-01 -4.14137900e-01 -4.91431952e-02 -3.33153844e+00 -2.98075736e-01 -6.92071691e-02 -1.17846215e+00 +3.21797103e-01 -5.22896469e-01 +1.50588906e+00 -6.88969612e-01 -1.02159619e+00 -4.03609991e-01 -2.56365824e+00 +5.87832034e-01 -5.52334547e-01 -3.30772460e-01 +1.24981844e+00 -1.63513437e-01 +1.67663860e+00 +1.75996035e-01 -6.01339936e-01 -1.07009482e+00 -3.43343496e+00 +3.05512160e-01 
#Parameter# /_17 {10} 161 ZERO_GRAD
-8.49955261e-01 -9.25482035e-01 -2.93611407e+00 -6.64834380e-01 +1.81639522e-01 -1.24927080e+00 -3.51444989e-01 -1.04246771e+00 +4.77951139e-01 +5.22210240e-01 
#Parameter# /_18 {10,5} 801 ZERO_GRAD
+1.12793100e+00 -7.93656170e-01 +1.58583999e-01 +8.73974502e-01 +2.03246140e+00 -6.25473976e-01 +4.94688481e-01 +2.03358661e-02 -3.75917935e+00 +5.84182858e-01 +2.09621355e-01 -5.20490170e-01 -9.72084284e-01 +1.53174889e+00 +1.03219354e+00 -3.49553794e-01 +6.50166392e-01 +2.61462778e-01 -2.12800622e+00 +1.55040234e-01 +4.87008989e-02 -1.16405034e+00 -5.71825683e-01 +3.47497761e-01 +7.48850167e-01 -1.30985796e-01 +1.13986921e+00 +4.62500870e-01 -3.56014204e+00 +6.10104382e-01 +8.25676143e-01 -1.09771526e+00 -2.96175867e-01 +9.16113734e-01 +1.00019205e+00 -4.02595133e-01 +3.92843038e-01 -8.52733999e-02 -2.26739502e+00 +3.57101440e-01 +1.05682945e+00 -3.31979811e-01 -9.68750715e-01 +4.07268465e-01 +9.11173642e-01 +5.82235515e-01 +8.88178051e-01 +1.08495772e+00 -3.25161052e+00 +5.44490814e-02 
#Parameter# /_19 {10} 161 ZERO_GRAD
+3.39950293e-01 -4.64703828e-01 -2.81460953e+00 +9.46283400e-01 +1.09458113e+00 -9.08982158e-01 +4.53147322e-01 +3.69998366e-01 +3.83619480e-02 -9.66001451e-02 
#Parameter# /_20 {10,5} 801 ZERO_GRAD
-1.94801033e-01 -1.11040890e-01 -5.17510772e-01 -1.09148765e+00 +1.63204646e+00 -8.25337231e-01 -3.67573529e-01 +9.60668325e-02 -3.62272763e+00 +5.19875407e-01 -3.03987354e-01 -9.53651428e-01 -3.40356380e-01 -5.46968043e-01 +6.61881983e-01 -4.37234402e-01 -4.61845815e-01 -7.98920751e-01 -3.25903440e+00 +5.72503030e-01 -1.01921618e+00 +1.83366522e-01 +3.79027873e-02 -1.03348649e+00 +9.53474939e-01 -8.53030384e-01 -1.76291689e-01 -8.38699996e-01 -3.75365567e+00 +3.70046079e-01 -5.03708363e-01 -6.71659052e-01 +4.59084921e-02 -6.52818561e-01 +6.34565353e-01 -1.09553742e+00 -7.81647503e-01 -1.16370356e+00 -2.99553657e+00 -4.22859728e-01 -6.86957479e-01 -9.18188930e-01 -5.16191244e-01 -1.03310776e+00 +5.00532150e-01 -1.60509303e-01 +7.05321953e-02 -3.43826234e-01 -3.09493494e+00 +1.36780545e-01 
#Parameter# /_21 {10} 161 ZERO_GRAD
-9.22269285e-01 -6.03924572e-01 -3.20670748e+00 -1.03266311e+00 +1.73155951e+00 -1.34766281e+00 -9.28514540e-01 -1.07837331e+00 +1.38611406e-01 -6.21667132e-02 
#Parameter# /_22 {10,5} 801 ZERO_GRAD
-2.43478287e-02 -5.50159097e-01 +5.25552511e-01 -1.04932058e+00 +1.25701308e+00 +1.70576304e-01 -5.29726565e-01 -8.24976787e-02 -4.09562492e+00 +3.05323958e-01 -2.43613973e-01 -8.55876088e-01 +4.61794585e-01 -6.76906645e-01 +1.33513856e+00 -2.20762223e-01 -7.03639865e-01 -6.79925799e-01 -3.43685961e+00 +8.52788910e-02 -1.03443873e+00 -4.72144723e-01 -5.24470925e-01 -5.92045963e-01 +1.22977924e+00 -6.63520396e-02 -3.21047604e-01 -1.28198802e+00 -3.33505249e+00 -5.71381822e-02 -2.08819255e-01 -7.67166913e-01 +7.58654773e-01 -1.72287419e-01 +1.85008311e+00 -5.24668634e-01 -5.42040586e-01 -2.39917904e-01 -2.39315534e+00 +6.01499200e-01 -5.91294944e-01 -7.81751096e-01 -2.13193178e-01 -4.94337708e-01 +9.71649945e-01 -5.04515409e-01 -2.43778661e-01 -6.67921066e-01 -2.66540313e+00 -1.46364421e-01 
#Parameter# /_23 {10} 161 ZERO_GRAD
-1.15640783e+00 -6.64206743e-01 -3.19773579e+00 -1.26912987e+00 +1.17016029e+00 -1.42759824e+00 -9.15467858e-01 -6.80906415e-01 +4.25281614e-01 +4.77117270e-01 
#Parameter# /_24 {10,5} 801 ZERO_GRAD
-8.69332194e-01 -3.19491178e-01 +3.32830667e-01 -1.46464312e+00 +5.81651509e-01 -3.34591895e-01 -6.39638722e-01 -9.20053184e-01 -2.91459155e+00 -5.30112445e-01 -8.23456764e-01 -9.32755053e-01 -5.95711946e-01 -1.03772616e+00 -2.12283015e+00 -6.45362020e-01 -8.20200980e-01 -9.25946295e-01 -2.14099598e+00 -2.08332196e-01 -3.78156722e-01 -3.17981750e-01 -4.28004980e-01 -1.03994536e+00 -1.37920165e+00 -4.07708496e-01 -9.52719152e-03 -5.83991885e-01 -3.19104362e+00 +3.16433519e-01 -9.21204269e-01 -9.77730811e-01 +5.81539199e-02 -8.37422073e-01 +5.06391466e-01 -5.62167168e-01 -1.20652235e+00 -3.44693512e-01 -2.76156378e+00 +4.30249393e-01 -2.21232414e-01 -2.40761459e-01 -2.76464969e-01 -8.81526589e-01 -1.71026897e+00 -9.07139659e-01 -7.34860674e-02 -6.34496152e-01 -3.04273009e+00 +2.03708395e-01 
#Parameter# /_25 {10} 161 ZERO_GRAD
-8.23756933e-01 -4.85956252e-01 -3.61008692e+00 -1.01233649e+00 -6.22459114e-01 -1.83900678e+00 -6.59496129e-01 -1.09728754e+00 -1.29030883e+00 +4.00152981e-01 
#Parameter# /_26 {10,5} 801 ZERO_GRAD
-1.52551934e-01 -5.82633197e-01 +1.75491726e+00 -4.39353824e-01 +1.61603940e+00 -1.19311333e+00 -4.51353937e-01 -5.66195607e-01 -3.42655301e+00 +5.17232776e-01 -9.23347831e-01 -3.46737355e-01 +7.67732143e-01 -6.08880103e-01 +1.02994311e+00 -8.29321295e-02 -1.59152970e-01 -4.45276290e-01 -2.45809317e+00 +5.45861065e-01 -4.25062925e-01 -9.70325053e-01 +5.82423568e-01 -1.18393481e+00 +1.38735580e+00 -1.05094934e+00 -6.96780309e-02 -1.07756519e+00 -3.61731625e+00 +5.60853004e-01 -6.93849206e-01 -3.09214771e-01 +8.45631301e-01 -1.03062022e+00 +1.38027024e+00 -3.31568807e-01 -4.49683577e-01 -1.02409625e+00 -3.32818270e+00 +1.50572747e-01 -3.66287231e-01 -7.79053271e-01 +8.87846351e-01 -9.81218994e-01 +8.96162748e-01 -6.93270385e-01 -7.99596548e-01 -5.30390263e-01 -3.34654903e+00 +5.67304492e-01 
#Parameter# /_27 {10} 161 ZERO_GRAD
-8.64965260e-01 -6.00587547e-01 -1.78931725e+00 -1.02094233e+00 +1.07857609e+00 -9.87436175e-01 -1.09690905e+00 -3.05500180e-01 +4.22813177e-01 +4.50503379e-01 
#Parameter# /_28 {10,5} 801 ZERO_GRAD
-9.42077711e-02 -6.27667189e-01 -1.41728461e-01 +9.13955092e-01 +1.87866974e+00 +1.50248721e-01 -1.28294539e+00 -9.97594655e-01 -3.82398105e+00 +5.81951797e-01 -1.01063228e+00 -9.35857952e-01 -4.55849260e-01 +3.56454909e-01 +1.17903900e+00 +1.03468382e+00 -1.63394853e-01 -8.38827565e-02 -2.84354329e+00 -3.48247737e-01 -7.28056848e-01 -1.04080641e+00 +9.16418955e-02 +4.52569634e-01 +1.20555627e+00 +4.66398560e-02 -6.69015110e-01 -5.60931683e-01 -3.10981774e+00 +3.34501475e-01 -2.08794549e-01 -7.19298601e-01 +9.39957574e-02 +5.98889530e-01 +1.43636024e+00 +8.69537234e-01 -3.62734288e-01 -1.19214976e+00 -2.18654871e+00 -2.12115899e-01 -2.51770467e-01 -9.94148999e-02 -1.30314708e-01 +1.29926515e+00 +1.21088302e+00 +2.27233484e-01 +9.93549302e-02 -5.26872948e-02 -2.40352964e+00 -2.24112421e-01 
#Parameter# /_29 {10} 161 ZERO_GRAD
-8.15143764e-01 -6.39186680e-01 -3.27556539e+00 -1.71463713e-01 +7.51349807e-01 +6.60918534e-01 -7.56561041e-01 -6.19610727e-01 -1.48010373e-01 -8.26739147e-02 
#Parameter# /_30 {10,5} 801 ZERO_GRAD
-9.00417924e-01 -5.55597484e-01 +5.63192844e-01 -5.07771015e-01 +1.48203945e+00 -5.04869282e-01 -7.87869036e-01 -3.10929924e-01 -3.75020123e+00 +2.08846666e-02 -2.33967900e-01 -1.97008803e-01 +3.34659457e-01 -9.09934223e-01 +1.79736495e+00 +6.24549031e-01 -5.53377159e-02 -8.64900231e-01 -2.69163084e+00 -1.41281292e-01 -3.80566180e-01 -3.60478848e-01 +6.62367642e-01 -1.04477870e+00 +9.32408333e-01 -6.07504606e-01 -2.64022499e-01 -2.73858309e-02 -3.22827888e+00 +5.50414622e-01 -6.92900538e-01 -1.29576325e+00 +6.77326024e-02 -6.27775192e-01 +1.95379865e+00 -4.30443883e-01 -7.49023974e-01 -8.85220528e-01 -3.08977151e+00 +5.71169138e-01 -1.59306884e-01 -9.90530670e-01 +1.68174043e-01 -4.17367131e-01 +9.42016661e-01 -5.12983441e-01 -6.68991625e-01 -7.43516564e-01 -3.27429795e+00 +5.30043066e-01 
#Parameter# /_31 {10} 161 ZERO_GRAD
-9.78702962e-01 -8.14246953e-01 -3.05294251e+00 -9.36469674e-01 +7.22357571e-01 -6.08629882e-01 -7.31557488e-01 -8.38234007e-01 +4.31625307e-01 -3.78366351e-01 
#Parameter# /_32 {10,5} 801 ZERO_GRAD
+3.48279804e-01 -1.11045182e+00 -1.14220572e+00 -2.91525990e-01 +9.87563670e-01 -8.01911116e-01 +7.87497580e-01 -4.93245602e-01 -3.02705574e+00 -1.55908279e-02 +4.36204195e-01 -3.55855733e-01 -9.91799176e-01 -8.53707418e-02 -3.29702830e+00 -5.93222558e-01 +1.08036399e+00 -5.24192989e-01 -2.23751879e+00 +3.45195502e-01 +5.76413453e-01 -1.24597704e+00 -1.00640285e+00 -1.13275874e+00 -2.67469239e+00 -5.08167148e-01 +8.00661802e-01 +1.16734318e-02 -3.63566923e+00 +4.10664141e-01 -2.30007991e-01 -9.93285000e-01 -3.11393857e-01 -1.21650481e+00 +8.76764894e-01 -1.22608650e+00 +1.87368561e-02 -6.64838135e-01 -3.46836233e+00 +3.14263254e-01 +9.28298056e-01 -3.07721138e-01 -1.38485944e+00 +1.52471727e-02 -3.00187206e+00 -6.91251695e-01 +5.06283462e-01 -2.54595160e-01 -1.26701558e+00 +1.08211339e-02 
#Parameter# /_33 {10} 161 ZERO_GRAD
-7.08475485e-02 -1.13164759e+00 -2.61398721e+00 -8.11780393e-01 -4.55808163e-01 -1.53332973e+00 +2.91561037e-01 -5.95717549e-01 -2.54921615e-01 -4.94065166e-01 
#Parameter# /_34 {10,5} 801 ZERO_GRAD
+2.16650188e-01 +1.22629237e+00 -5.57843328e-01 +5.98824203e-01 +1.05609655e+00 -1.77079797e-01 +9.61156726e-01 +3.83713633e-01 -2.34063435e+00 +7.63628213e-03 +1.03439438e+00 +1.10284232e-01 -3.76341522e-01 +6.27498806e-01 -2.32650638e+00 +9.94323492e-02 +1.07144094e+00 +9.03995872e-01 -2.26795816e+00 -1.11651711e-01 +8.92595589e-01 +9.55423951e-01 -6.95896089e-01 +1.59679091e+00 -2.29789734e+00 -4.53826100e-01 +5.82186580e-01 +3.04736435e-01 -2.37985921e+00 +4.71241832e-01 +1.03550518e+00 +9.09023345e-01 -8.87867510e-01 +3.73721987e-01 +8.37308824e-01 -9.73338425e-01 +5.60024798e-01 +1.09307003e+00 -2.20803881e+00 +1.22057326e-01 +3.57032657e-01 +7.52954066e-01 -5.55483997e-01 +5.55935264e-01 -2.38818574e+00 -3.37146729e-01 +1.36418831e+00 +8.60795319e-01 -2.05686903e+00 -6.75050169e-02 
#Parameter# /_35 {10} 161 ZERO_GRAD
+9.65056896e-01 +8.60972404e-01 -2.80679274e+00 +6.38307869e-01 -3.49332213e-01 -1.17546225e+00 +8.40348721e-01 +4.68109339e-01 -1.41391087e+00 -2.65995324e-01 
