#Parameter# /_0 {10,8} 1281 ZERO_GRAD
-1.05587550e-01 +1.23209916e-01 +2.08845049e-01 -6.51303768e-01 +4.10843581e-01 -3.35422248e-01 +2.44574472e-01 -6.86408937e-01 +7.84323514e-02 +5.32829063e-03 +4.94437039e-01 -1.46532762e+00 +1.08356249e+00 -1.48913455e+00 -1.56388462e+00 +3.06670725e-01 +7.98274934e-01 -3.01318669e+00 +1.44246244e+00 +7.05147028e-01 -2.94663787e-01 -2.28621587e-02 +1.37106091e-01 -9.39481258e-01 +3.04592580e-01 +5.84097445e-01 +2.21160784e-01 -2.01101109e-01 +4.01739895e-01 -1.39597192e-01 -4.92478460e-01 +4.86209214e-01 -4.06967759e-01 -2.79476047e-02 +5.01192272e-01 -4.75145251e-01 -2.29422897e-01 +1.14156997e+00 -4.08881396e-01 +7.52430782e-02 -4.57592994e-01 -4.03864980e-01 +2.90100664e-01 +1.74482763e-01 +2.26882964e-01 +2.11680844e-01 -3.39243352e-01 -7.43763924e-01 +1.73854604e-02 +5.48313558e-01 +1.56680182e-01 -1.86515546e+00 +1.60439157e+00 -1.02630600e-01 -2.04061151e+00 +5.42906284e-01 +1.51765764e+00 -3.06074572e+00 +2.66599774e+00 -2.33431160e-01 -2.22521722e-02 +8.78551126e-01 -8.18276465e-01 +2.05946302e+00 +9.16136920e-01 -8.77485871e-01 -8.57493281e-01 +1.40942419e+00 -1.61946404e+00 -2.96289593e-01 +2.44491026e-01 -1.88898361e+00 +1.66154289e+00 -3.29682708e-01 -1.46523786e+00 +9.24070060e-01 +1.65756691e+00 -6.73283488e-02 +4.79337394e-01 -2.02793702e-02 
#Parameter# /_1 {10} 161 ZERO_GRAD
-4.04336661e-01 +8.39361250e-02 -1.14769578e-01 -1.12384725e+00 -3.17202508e-01 +1.93243980e-01 +3.58052731e-01 -1.21444845e+00 +8.24213445e-01 -1.83882713e-01 
#Parameter# /_2 {10,10} 1601 ZERO_GRAD
+8.05160582e-01 +2.34035954e-01 -6.16619959e-02 +6.96346581e-01 +2.80868798e-01 +3.66436362e-01 +3.62962097e-01 +4.24627006e-01 +2.64331907e-01 -4.62311566e-01 +6.86910033e-01 +6.18654907e-01 +1.41490495e+00 +3.16744417e-01 +4.42595035e-01 +1.03190768e+00 +1.97986975e-01 +6.06126010e-01 +1.72579050e+00 +9.17962119e-02 +4.23717707e-01 -3.31029594e-01 -1.22743106e+00 +5.64453781e-01 +1.00699389e+00 -3.16327065e-01 +2.06657752e-01 -4.72420931e-01 -8.32399786e-01 +3.10914397e-01 +3.83372426e-01 +7.98008025e-01 +1.16809535e+00 +5.44066906e-01 +8.20371568e-01 +5.65232694e-01 +6.65430427e-01 +2.14719579e-01 +1.70390868e+00 -4.93027270e-01 +5.20989180e-01 +8.96187186e-01 +1.44421411e+00 +4.30403113e-01 +5.13383448e-01 +2.93741614e-01 +5.64673960e-01 +1.04308441e-01 +2.02658820e+00 +4.25419569e-01 -3.82102460e-01 -2.05016136e-01 -5.53181529e-01 -1.99022174e-01 +1.80993065e-01 -5.41626155e-01 +6.31706595e-01 -2.01981813e-01 -8.98163497e-01 -4.39182550e-01 +7.11955965e-01 +2.78668851e-01 -1.06353796e+00 +4.94160473e-01 +1.10117137e+00 +3.01716208e-01 +5.21742165e-01 +1.23711295e-01 -6.63546741e-01 +1.43606618e-01 +6.93606377e-01 +4.49126989e-01 +1.04264259e+00 +8.56608808e-01 +1.27520725e-01 +4.78322089e-01 +5.28207719e-01 +6.48620844e-01 +2.65971518e+00 +4.92527783e-01 -4.65256333e-01 -3.23494077e-01 -1.19979525e+00 -1.83781624e-01 +4.71901238e-01 -5.60631514e-01 +6.34378195e-01 -5.20281374e-01 -1.70595026e+00 +9.57999285e-03 +5.29316247e-01 +3.55826527e-01 -4.79871213e-01 -4.26710874e-01 -1.88903615e-01 -5.07711589e-01 +4.56238180e-01 -4.72707897e-01 -4.32711601e-01 +4.50346887e-01 
#Parameter# /_3 {10} 161 ZERO_GRAD
+4.73318845e-01 +5.12276856e-05 -5.93914926e-01 +2.25322902e-01 +1.23601747e+00 -4.35208492e-02 +9.39685404e-01 +3.99877846e-01 +2.82834500e-01 +4.09819990e-01 
#Parameter# /_4 {10,8} 1281 ZERO_GRAD
+1.20114040e+01 -4.24673748e+00 +1.11703968e+00 -2.19938183e+00 +2.84750009e+00 -4.36559945e-01 -1.16780770e+00 +3.51766658e+00 +6.03385782e+00 +8.56180286e+00 -9.33393383e+00 +2.39782314e+01 -1.52093048e+01 +1.05163546e+01 -2.27712975e+01 +5.44195747e+00 +1.95502853e+00 -2.20105419e+01 -2.08462944e+01 -2.85677204e+01 +3.28047335e-01 -1.89117336e+00 -1.31336749e+00 -2.00817037e+00 -1.25033453e-01 -2.87571311e+00 -1.84476662e+00 +7.12771177e-01 +7.18319356e-01 +7.10337520e-01 +1.26728043e-01 -4.06450391e-01 +8.29214096e-01 +4.39505652e-02 -2.53743863e+00 +3.70151438e-02 -6.27132016e-04 +2.47644329e+00 -1.75336078e-01 +4.47107069e-02 +6.37224987e-02 +2.12758112e+00 +4.11678880e-01 -4.05594063e+00 -1.21730871e-01 -2.88367534e+00 +4.74654055e+00 -2.37247095e-01 -2.10865200e-01 -2.06866026e-01 -9.89233375e-01 +1.73657238e+00 +9.92472053e-01 -1.67819858e-01 +5.35343945e-01 -1.71619606e+00 -8.58610943e-02 -5.38240932e-02 +5.32605946e-01 -6.93263590e-01 -5.73127091e-01 +1.77100524e-01 +1.14182854e+00 +1.82120746e-03 +4.82400477e-01 +1.51362985e-01 -2.07078767e+00 +3.86138737e-01 +3.52355152e-01 +7.98649788e-01 -1.23446870e+00 +6.72895074e-01 -2.30322421e-01 +1.09307456e+00 +1.33437112e-01 +3.30397755e-01 +5.93809247e-01 +4.68746901e-01 -1.31565049e-01 +7.60318115e-02 
#Parameter# /_5 {10} 161 ZERO_GRAD
-3.61233056e-01 -6.79172897e+00 -7.02488959e-01 -3.32314873e+00 +1.33022046e+00 -2.53114009e+00 -2.57331276e+00 +1.70774341e-01 +7.10720479e-01 +1.76394880e+00 
#Parameter# /_6 {10,10} 1601 ZERO_GRAD
-5.75393856e-01 -6.72367334e-01 -5.69156647e-01 -7.12336957e-01 -7.20384598e-01 -8.82585764e-01 -2.93347687e-01 -7.64109969e-01 -2.08189869e+00 -1.35554814e+00 -2.29282707e-01 -6.33546889e-01 -9.48256314e-01 -3.10951233e-01 -2.17038721e-01 -2.62236238e-01 -5.52418470e-01 -2.39349961e-01 +1.48675823e+00 -1.03818551e-01 -4.18125123e-01 +1.85852990e-01 -2.12133244e-01 -6.87351227e-01 -1.28261173e+00 -5.48965573e-01 -4.05883491e-02 -4.33338135e-01 -1.65535522e+00 -5.51242352e-01 +2.03869835e-01 -6.26424015e-01 -7.51915276e-01 -5.95129967e-01 -3.85794699e-01 -5.31627655e-01 +2.16085631e-02 -7.39652097e-01 +1.44595265e+00 -4.46303636e-01 -7.12082908e-02 -1.60279110e-01 +1.93451688e-01 -5.48357368e-01 -6.09909713e-01 -3.68799090e-01 +5.74389547e-02 -6.29787803e-01 -1.53621578e+00 -9.25258875e-01 -4.21241999e-01 -6.63660884e-01 -1.36035860e-01 -1.35900909e-02 -4.71843127e-03 +2.98415333e-01 -4.26405072e-01 -5.91758132e-01 +5.40683568e-01 -1.01949704e+00 -5.81564009e-01 -6.30435288e-01 -3.47139865e-01 -8.34817290e-02 +1.40441675e-02 +6.82023093e-02 -2.90132731e-01 -5.55175006e-01 +1.73598993e+00 -5.59253335e-01 -7.14894295e-01 -3.45474333e-01 +7.38097727e-03 -6.28598809e-01 -3.33434999e-01 -8.46705735e-01 -7.41730750e-01 -5.67583621e-01 -1.85027003e+00 -8.40719342e-01 -2.05462590e-01 -8.45031917e-01 -9.52509791e-02 -2.97132015e-01 -6.16819739e-01 -7.20008612e-01 -4.16450888e-01 -5.94713390e-01 -1.46812236e+00 -1.02932870e+00 -6.65769815e-01 -4.60638762e-01 +6.49634123e-01 -6.90021396e-01 -1.22448720e-01 -7.57536173e-01 -6.93445981e-01 -9.02237594e-01 -2.07844210e+00 -8.61003816e-01 
#Parameter# /_7 {10} 161 ZERO_GRAD
-1.90902114e+00 -1.95816326e+00 -2.95749903e+00 -1.32869399e+00 -1.83882999e+00 -1.85330045e+00 -1.85928726e+00 -1.29379618e+00 +6.09669447e-01 -1.12440538e+00 
#Parameter# /_8 {1,10} 161 ZERO_GRAD
+5.46281457e-01 -9.37270463e-01 -1.34452116e+00 +4.40852344e-02 +3.93374950e-01 +5.71905553e-01 -2.50617653e-01 +1.94076285e-01 +1.80630779e+01 +3.49950850e-01 
#Parameter# /_9 {1} 17 ZERO_GRAD
-1.22060432e+01 
#Parameter# /_10 {5,3} 241 ZERO_GRAD
-2.80559235e+01 -2.02177849e+01 -2.82989693e+01 -2.33001938e+01 -2.17990074e+01 -7.85666037e+00 +8.45197868e+00 -1.00038366e+01 +6.56834841e+00 +6.32273102e+00 +1.19152040e+01 -6.02179432e+00 -1.05922508e+01 +9.77667332e+00 -4.57504797e+00 
#Parameter# /_11 {5} 81 ZERO_GRAD
-1.31019986e+00 -1.28076565e+00 -1.37034559e+00 -1.42075384e+00 -1.01373684e+00 
#Parameter# /_12 {5,3} 241 ZERO_GRAD
+2.04602405e-01 +4.52526689e-01 -7.11356759e-01 +3.99456114e-01 -6.46912873e-01 +2.86116689e-01 +8.83447155e-02 -4.92137671e-02 -9.79650095e-02 +3.23875576e-01 -9.69531000e-01 +5.62586904e-01 +5.74280024e-01 -8.07221830e-02 -2.03522429e-01 
#Parameter# /_13 {5} 81 ZERO_GRAD
+3.79166532e+00 +3.01489472e+00 +3.24816799e+00 +3.99657631e+00 +2.69412780e+00 
#Parameter# /_14 {5,3} 241 ZERO_GRAD
+8.06014061e-01 -7.46291652e-02 +6.18314780e-02 +7.47537553e-01 +3.29172522e-01 +9.43185329e-01 +1.51327550e-01 -2.97455728e-01 +8.08995664e-01 -7.46459067e-01 -9.23550069e-01 -3.29293549e-01 -4.13241267e-01 +2.59011269e+00 +1.02900669e-01 
#Parameter# /_15 {5} 81 ZERO_GRAD
-3.20330906e+00 +2.89720058e+00 +2.59933639e+00 -3.70081949e+00 +3.58193612e+00 
#Parameter# /_16 {10,5} 801 ZERO_GRAD
-6.67409122e-01 -7.05588937e-01 -8.10408071e-02 -2.01818657e+00 +2.09121299e+00 -5.33698738e-01 -1.90118647e+00 -1.00822115e+00 -4.83063412e+00 +2.04483941e-01 +1.24629223e+00 -5.48079729e-01 -3.86528671e-01 +1.07996754e-01 +1.65710115e+00 -8.17567110e-01 +4.26659912e-01 -1.95142090e-01 -3.83295298e+00 +3.58346313e-01 +1.27732432e+00 -7.55224168e-01 -8.40123236e-01 -1.58118188e-01 +1.80985391e+00 -2.37727463e-01 +2.99193144e-01 -1.43233284e-01 -4.94043446e+00 -3.01501334e-01 -1.97232440e-01 -1.21186888e+00 -4.35924470e-01 -1.43788588e+00 +1.16254485e+00 -1.08276939e+00 -3.05643582e+00 -4.66890365e-01 -3.33244991e+00 +5.86459577e-01 +1.50019443e+00 -5.21454751e-01 -3.79371196e-01 +9.26120698e-01 +2.31360102e+00 -3.55792254e-01 +5.44722557e-01 -1.17391586e+00 -4.28537035e+00 +3.01672399e-01 
#Parameter# /_17 {10} 161 ZERO_GRAD
+7.36181021e-01 -1.37535608e+00 -5.42984152e+00 +1.43608117e+00 -1.51436770e+00 -1.98867249e+00 +2.05776119e+00 -1.12244177e+00 +6.37019694e-01 +5.08308828e-01 
#Parameter# /_18 {10,5} 801 ZERO_GRAD
+1.29069817e+00 -8.77495527e-01 -8.21562335e-02 +9.35386062e-01 +2.18916559e+00 -1.03899693e+00 +6.32625461e-01 -3.19099873e-01 -4.49101114e+00 +5.82875013e-01 +9.29488838e-01 -7.07068622e-01 -1.32077515e+00 +1.83396137e+00 +1.61941600e+00 -9.16223645e-01 +1.15933001e+00 -1.14095427e-01 -2.75815320e+00 +1.51435018e-01 +7.60342658e-01 -1.35276353e+00 -8.51250887e-01 +6.14051819e-01 +1.32667816e+00 -6.67368412e-01 +1.59278643e+00 +9.51216444e-02 -4.34074926e+00 +6.06617630e-01 +7.74166763e-01 -1.14274251e+00 -4.83238280e-01 +9.65644181e-01 +9.07290995e-01 -8.12211394e-01 +4.35881495e-01 -4.16173488e-01 -3.15298390e+00 +3.55856478e-01 +1.84702206e+00 -5.28863251e-01 -1.34959161e+00 +7.23865688e-01 +1.58591497e+00 +6.58756774e-03 +1.44394255e+00 +7.07191348e-01 -3.77536488e+00 +5.07493839e-02 
#Parameter# /_19 {10} 161 ZERO_GRAD
+1.06901395e+00 -9.79061842e-01 -3.68749952e+00 +1.91930091e+00 +6.98078871e-01 -1.74760437e+00 +1.69356811e+00 +4.01467877e-03 -4.38194536e-02 -1.11170352e-01 
#Parameter# /_20 {10,5} 801 ZERO_GRAD
-9.82661992e-02 -2.61521518e-01 -1.14869332e+00 -1.44702542e+00 +1.39635551e+00 -1.03313720e+00 -1.66452658e+00 +2.69878414e-02 -4.77473545e+00 +5.19210517e-01 +1.49215174e+00 -1.24972308e+00 -1.42415619e+00 +5.08471906e-01 +9.74536955e-01 -7.42973089e-01 +2.24193990e-01 -8.93396199e-01 -3.91635370e+00 +5.69807172e-01 +7.75322378e-01 -1.00325994e-01 -9.90770936e-01 -5.42579815e-02 +1.26266110e+00 -1.13936567e+00 +3.81646961e-01 -9.25960362e-01 -5.37391186e+00 +3.67550045e-01 -6.03694320e-01 -7.69750357e-01 -3.57124984e-01 -1.02627409e+00 +1.59435958e-01 -1.30707574e+00 -2.67972779e+00 -1.22597814e+00 -3.93852329e+00 -4.23557013e-01 +1.21519601e+00 -1.22766685e+00 -1.68064678e+00 +8.15712884e-02 +9.04931068e-01 -4.72103655e-01 +1.04078782e+00 -4.40684319e-01 -3.69271636e+00 +1.34084091e-01 
#Parameter# /_21 {10} 161 ZERO_GRAD
+9.54365790e-01 -1.17383206e+00 -5.06418085e+00 +1.14280164e+00 +1.10310137e+00 -1.89995003e+00 +1.59562254e+00 -1.16061544e+00 +2.76858220e-03 -7.31773302e-02 
#Parameter# /_22 {10,5} 801 ZERO_GRAD
-6.51918948e-02 -6.20454490e-01 +1.39607772e-01 -1.94315350e+00 +1.32002759e+00 -1.42794594e-01 -1.94883049e+00 -1.61612153e-01 -5.05658340e+00 +3.03607672e-01 +1.67202234e+00 -1.00469160e+00 -1.36655971e-01 +3.59203190e-01 +1.72565484e+00 -6.29834056e-01 +2.01300710e-01 -7.45727599e-01 -4.22031593e+00 +8.11050534e-02 +8.82352471e-01 -6.15970016e-01 -1.12101102e+00 +3.58903676e-01 +1.60135472e+00 -4.45514858e-01 +4.53173548e-01 -1.34313476e+00 -4.70905781e+00 -6.10876642e-02 -4.54944044e-01 -8.09835374e-01 +5.60231090e-01 -1.12766683e+00 +1.74199367e+00 -8.48961771e-01 -2.57400680e+00 -3.13107699e-01 -3.30118179e+00 +5.99934518e-01 +1.44870925e+00 -9.38451290e-01 -8.70906532e-01 +6.37633324e-01 +1.42512441e+00 -9.17307317e-01 +9.58648860e-01 -7.35125184e-01 -3.35054374e+00 -1.50669903e-01 
#Parameter# /_23 {10} 161 ZERO_GRAD
+5.20245433e-01 -1.11035383e+00 -4.47038364e+00 +9.36845243e-01 +6.17875338e-01 -2.02677822e+00 +1.58145380e+00 -7.42135048e-01 +5.98860741e-01 +4.62438107e-01 
#Parameter# /_24 {10,5} 801 ZERO_GRAD
-1.87529314e+00 -4.03204262e-01 -7.72559196e-02 -1.61970592e+00 +7.19820201e-01 -4.38980401e-01 -2.09180760e+00 -1.00031137e+00 -3.43154669e+00 -5.32182992e-01 -3.98185372e-01 -1.14587831e+00 -1.13499951e+00 -1.05596650e+00 -2.53003097e+00 -8.02458465e-01 +2.56844591e-02 -1.02750063e+00 -2.94504571e+00 -2.12869287e-01 +3.35706770e-02 -5.24071276e-01 -9.35423553e-01 -1.10624230e+00 -1.78583467e+00 -5.45621932e-01 +7.08201230e-01 -6.81417286e-01 -4.16159630e+00 +3.12088937e-01 -2.18809748e+00 -1.00768995e+00 -2.72699535e-01 -9.43540812e-01 +5.91385841e-01 -6.76606059e-01 -3.30813694e+00 -4.12718534e-01 -2.98527098e+00 +4.28305000e-01 +3.48044664e-01 -4.66717571e-01 -8.42234015e-01 -8.99435759e-01 -2.05367494e+00 -1.06705570e+00 +1.06670427e+00 -7.40086079e-01 -3.90559936e+00 +1.99060112e-01 
#Parameter# /_25 {10} 161 ZERO_GRAD
-4.02091503e-01 -1.02454591e+00 -4.48343229e+00 -1.88407704e-01 -1.72500324e+00 -2.14669132e+00 +1.73806965e+00 -1.20519006e+00 -1.93399656e+00 +3.84945989e-01 
#Parameter# /_26 {10,5} 801 ZERO_GRAD
-6.69546947e-02 -6.90199614e-01 +5.98007023e-01 -1.14875829e+00 +1.70511830e+00 -1.37802911e+00 -1.85027277e+00 -6.32160425e-01 -4.64691257e+00 +5.16516924e-01 +9.38782156e-01 -5.46983898e-01 -7.12689579e-01 +5.46606243e-01 +1.49486768e+00 -3.58326018e-01 +7.44242489e-01 -5.33328116e-01 -3.01584744e+00 +5.43434143e-01 +1.43408871e+00 -1.17515314e+00 -8.20338130e-01 -1.16619140e-01 +1.84711564e+00 -1.30942512e+00 +7.08430231e-01 -1.15924060e+00 -4.91201162e+00 +5.58581889e-01 -8.76805604e-01 -3.75723749e-01 +2.03310214e-02 -1.78320861e+00 +1.25528228e+00 -5.23642480e-01 -2.43079185e+00 -1.07759655e+00 -4.24184895e+00 +1.49687439e-01 +1.62365103e+00 -9.89645779e-01 -7.00263321e-01 +2.65767694e-01 +1.43670964e+00 -9.75392103e-01 +3.98878038e-01 -6.22142315e-01 -3.83265162e+00 +5.64802766e-01 
#Parameter# /_27 {10} 161 ZERO_GRAD
+8.04439127e-01 -1.11446035e+00 -4.90958261e+00 +1.40327299e+00 +5.08259237e-01 -1.55164361e+00 +1.38211000e+00 -3.70716691e-01 +4.65481251e-01 +4.38288510e-01 
#Parameter# /_28 {10,5} 801 ZERO_GRAD
-2.89944559e-02 -6.93177223e-01 -5.52469075e-01 +9.50581491e-01 +1.87332726e+00 -8.87381613e-01 -2.67580795e+00 -1.06804752e+00 -4.36459827e+00 +5.79741359e-01 +8.87081623e-01 -1.08176017e+00 -1.02620065e+00 +7.99520433e-01 +1.61431706e+00 -2.43292764e-01 +5.86049139e-01 -2.00426757e-01 -3.91629100e+00 -3.53077859e-01 +1.17471337e+00 -1.18854368e+00 -4.23899680e-01 +8.34018946e-01 +1.63173163e+00 -1.17551482e+00 -5.54205067e-02 -6.72978520e-01 -4.48388577e+00 +3.29886496e-01 -3.96264523e-01 -7.49537528e-01 -1.90202147e-01 +5.67153811e-01 +1.19939816e+00 -1.96584806e-01 -2.32081008e+00 -1.24163842e+00 -2.71229553e+00 -2.14207321e-01 +1.77174449e+00 -2.53600508e-01 -7.51090944e-01 +1.77300048e+00 +1.72214222e+00 -1.05504119e+00 +1.14025736e+00 -1.75270095e-01 -3.43344593e+00 -2.29047045e-01 
#Parameter# /_29 {10} 161 ZERO_GRAD
+6.13196611e-01 -1.08855128e+00 -4.39727640e+00 +1.21142864e+00 -5.77429891e-01 -1.04217553e+00 +1.74707615e+00 -7.03441381e-01 -7.01701105e-01 -9.86622497e-02 
#Parameter# /_30 {10,5} 801 ZERO_GRAD
-6.48027778e-01 -6.37666285e-01 -4.25076671e-02 -1.46100819e+00 +1.56438100e+00 -8.85646164e-01 -2.24614382e+00 -3.79181772e-01 -4.77734375e+00 +1.92540456e-02 +1.59063232e+00 -3.85472536e-01 -5.77244937e-01 +1.31341636e-01 +2.31104827e+00 +1.02812916e-01 +8.01304162e-01 -9.55314338e-01 -3.24140716e+00 -1.45388514e-01 +1.43645465e+00 -5.43043554e-01 -1.74579352e-01 -9.67655629e-02 +1.40922642e+00 -1.09961379e+00 +4.58570361e-01 -1.06522001e-01 -4.63248396e+00 +5.46458781e-01 -8.78874183e-01 -1.34251130e+00 -2.89382607e-01 -1.64151371e+00 +1.81343043e+00 -8.12187076e-01 -2.83544064e+00 -9.46637809e-01 -3.86863446e+00 +5.69677651e-01 +1.81874669e+00 -1.19013119e+00 -8.28181207e-01 +7.22518742e-01 +1.53939950e+00 -1.04355884e+00 +4.85265970e-01 -8.36518168e-01 -3.73464298e+00 +5.25777280e-01 
#Parameter# /_31 {10} 161 ZERO_GRAD
+7.49644816e-01 -1.28334880e+00 -4.70957375e+00 +1.39169657e+00 -6.61834702e-02 -1.44325292e+00 +1.69131231e+00 -9.09295857e-01 +6.54503644e-01 -3.93325478e-01 
#Parameter# /_32 {10,5} 801 ZERO_GRAD
+1.37003481e-01 -1.21704042e+00 -1.65022731e+00 -1.25973845e+00 +5.37078500e-01 -9.74967957e-01 +5.86983085e-01 -6.77083969e-01 -2.80736089e+00 -1.61811020e-02 +1.06906796e+00 -5.69572926e-01 -1.69697666e+00 +6.86699808e-01 -3.76590276e+00 -8.49749863e-01 +1.22574580e+00 -7.49637008e-01 -1.56965947e+00 +3.42600316e-01 +1.20309865e+00 -1.46379018e+00 -1.66853881e+00 -4.48631734e-01 -3.14514780e+00 -7.43953764e-01 +8.75784814e-01 -2.03541949e-01 -3.71582222e+00 +4.08274919e-01 -7.52543807e-01 -1.05141890e+00 -6.84731364e-01 -2.23942590e+00 +4.40237999e-01 -1.40364718e+00 -3.26458752e-01 -8.29090893e-01 -4.50047207e+00 +3.13558370e-01 +1.63095951e+00 -5.33401191e-01 -2.14423680e+00 +8.74673247e-01 -3.45788193e+00 -9.53268170e-01 +7.22490728e-01 -4.84177649e-01 -2.83294439e-01 +8.23544525e-03 
#Parameter# /_33 {10} 161 ZERO_GRAD
+5.00864506e-01 -1.58630741e+00 -4.30663157e+00 +1.26805913e+00 -1.90372038e+00 -2.00150061e+00 +1.46625054e+00 -7.85015404e-01 -1.53113234e+00 -5.04711986e-01 
#Parameter# /_34 {10,5} 801 ZERO_GRAD
+1.84229344e-01 +1.13581502e+00 -8.15965354e-01 +5.96705258e-01 +7.70049810e-01 -4.28746760e-01 +1.05474591e+00 +3.41513425e-01 -2.75836396e+00 +5.42289764e-03 +1.45280540e+00 -1.62557736e-01 -7.63034582e-01 +9.32672977e-01 -2.41249108e+00 -2.68153429e-01 +1.42226827e+00 +8.38893116e-01 -2.41768694e+00 -1.16468519e-01 +1.30352700e+00 +6.80406332e-01 -1.03010678e+00 +1.84324741e+00 -2.37299728e+00 -7.93124676e-01 +8.91932011e-01 +2.51396716e-01 -3.02345538e+00 +4.66606259e-01 +8.83942842e-01 +8.58627379e-01 -1.06103373e+00 +3.69736642e-01 +4.58866864e-01 -1.23185742e+00 +6.15965962e-01 +1.05370462e+00 -2.48768091e+00 +1.19953491e-01 +8.18187356e-01 +4.66065466e-01 -9.83775198e-01 +8.77152622e-01 -2.40065265e+00 -7.11014867e-01 +1.74391234e+00 +7.94218421e-01 -2.16708088e+00 -7.24454895e-02 
#Parameter# /_35 {10} 161 ZERO_GRAD
+1.32314456e+00 +2.07138866e-01 -3.68197870e+00 +1.72648573e+00 -1.75726521e+00 -1.78186476e+00 +1.78729153e+00 +4.24969375e-01 -1.68092215e+00 -2.81852454e-01 
