#Parameter# /_0 {10,8} 1281 ZERO_GRAD
-8.99896175e-02 +6.29313216e-02 +2.41628185e-01 -5.54412067e-01 +3.43434960e-01 -4.27859008e-01 +2.36953497e-01 -5.52006066e-01 +9.84499305e-02 -1.33182826e-02 +5.28720200e-01 -1.14960575e+00 +8.20086181e-01 -8.47630203e-01 -1.29971802e+00 -7.01512843e-02 +5.40160894e-01 -2.09416485e+00 +7.94192672e-01 +5.74551105e-01 -2.01268464e-01 +8.39881152e-02 +5.30826859e-02 -5.92902601e-01 +2.36241013e-01 +2.99558759e-01 +1.33012220e-01 +7.96413869e-02 +3.04990649e-01 -2.34854892e-01 -4.66906309e-01 +3.38645190e-01 -2.78593361e-01 +1.30015146e-02 +3.80530626e-01 -5.90067387e-01 -1.00366503e-01 +9.88697171e-01 -4.04917926e-01 +5.77293485e-02 -4.55736876e-01 -3.78308177e-01 +2.70508647e-01 +1.44746423e-01 +3.24380726e-01 +2.24194899e-01 -4.20341581e-01 -4.96227533e-01 -1.90825611e-02 +5.40242374e-01 +3.29927355e-01 -1.54735434e+00 +1.38569653e+00 +4.23200913e-02 -2.32326221e+00 +3.01394444e-02 +1.28087926e+00 -1.76343024e+00 +2.16856551e+00 -3.96189153e-01 -1.98778864e-02 +1.05073261e+00 -1.03951430e+00 +1.15052307e+00 +5.14816225e-01 -8.42530310e-01 -1.39111924e+00 +1.69796908e+00 -1.53519988e+00 -3.69998574e-01 +4.35060114e-01 -1.50346553e+00 +1.31963515e+00 -3.29295129e-01 -8.09984684e-01 +2.53281295e-01 +1.29356956e+00 -1.04908955e+00 +9.86712277e-02 -2.80936211e-01 
#Parameter# /_1 {10} 161 ZERO_GRAD
-3.02604198e-01 +2.01516882e-01 -2.10014731e-01 -6.35996580e-01 -4.19921130e-01 -1.77135885e-01 +2.50385821e-01 -7.57417917e-01 +6.20045841e-01 -3.04542422e-01 
#Parameter# /_2 {10,10} 1601 ZERO_GRAD
+6.47074580e-01 +3.34973663e-01 +1.28504902e-01 +6.34144843e-01 +1.59693211e-01 +5.15950501e-01 +2.07330152e-01 +4.68762189e-01 -2.12437600e-01 -4.58837688e-01 +6.15054309e-01 +5.77086389e-01 +1.10236490e+00 +3.07451785e-01 +4.32098806e-01 +9.14960861e-01 +1.89866394e-01 +5.66830814e-01 +1.73169160e+00 +8.84789377e-02 +3.16125453e-01 -1.53194934e-01 -7.71012843e-01 +5.13292372e-01 +8.84845853e-01 -4.19322867e-03 +5.70209846e-02 -3.79066736e-01 -1.11674035e+00 +3.18556696e-01 +2.43736669e-01 +7.88133085e-01 +9.25289750e-01 +5.05440056e-01 +7.11670935e-01 +5.09532690e-01 +5.69692135e-01 +1.93494931e-01 +1.17332244e+00 -4.93587345e-01 +4.50478762e-01 +8.59403014e-01 +1.18047106e+00 +4.24316913e-01 +5.14169872e-01 +1.82951018e-01 +5.56980252e-01 +6.95378929e-02 +2.01819968e+00 +4.22571003e-01 -4.43814278e-01 -8.91379938e-02 -2.71931022e-01 -2.41521880e-01 +1.68345556e-01 -3.25854748e-01 +5.68297982e-01 -1.42398894e-01 -7.44357705e-01 -4.35575843e-01 +6.07065856e-01 +4.58589733e-01 -7.30733097e-01 +4.43339288e-01 +9.80241954e-01 +6.15204036e-01 +3.72114539e-01 +2.17693731e-01 -1.11552894e+00 +1.51360735e-01 +5.77205956e-01 +3.98905635e-01 +7.91330516e-01 +7.98667490e-01 +2.16350090e-02 +2.57036746e-01 +5.07246733e-01 +6.04282916e-01 +1.86161566e+00 +4.90452409e-01 -5.18252611e-01 -1.69998184e-01 -9.50635850e-01 -2.37269506e-01 +4.35551971e-01 -2.64884323e-01 +5.56332707e-01 -4.42221999e-01 -1.75341749e+00 +1.51909599e-02 +5.26921630e-01 +4.05953884e-01 -3.48638862e-01 -4.22718018e-01 -1.90007165e-01 -4.19078290e-01 +4.54837024e-01 -4.47377920e-01 +1.53926024e-02 +4.52165693e-01 
#Parameter# /_3 {10} 161 ZERO_GRAD
+2.93171734e-01 +1.39229462e-01 -4.03423905e-01 +1.65170267e-01 +1.10371971e+00 +1.58138976e-01 +7.81698227e-01 +4.55818713e-01 +5.92570417e-02 +4.14283574e-01 
#Parameter# /_4 {10,8} 1281 ZERO_GRAD
+1.04531097e+01 -3.69726610e+00 +8.52467835e-01 -2.02251887e+00 +1.97158623e+00 -4.83216554e-01 -1.01115978e+00 +2.69033265e+00 +4.58732462e+00 +6.51064157e+00 -7.94483089e+00 +2.14094620e+01 -1.30482712e+01 +8.84459400e+00 -1.97874718e+01 +4.31484222e+00 +1.62384307e+00 -1.86236877e+01 -1.77136230e+01 -2.46628666e+01 -5.47901019e-02 -1.76867390e+00 -1.05997574e+00 -1.67791092e+00 -3.73829186e-01 -2.20091271e+00 -1.31234956e+00 +8.98671865e-01 +4.04144138e-01 +7.13079870e-01 -3.12226325e-01 -3.45830210e-02 +8.80368650e-01 +8.22455734e-02 -1.97091889e+00 -3.30448374e-02 -3.98953915e-01 +1.75200045e+00 +8.27753365e-01 -5.91220677e-01 +4.75387201e-02 +1.10985780e+00 +4.72078204e-01 -3.03196645e+00 +9.57777873e-02 -2.14518261e+00 +2.87552452e+00 -3.04925203e-01 +1.52072951e-01 +1.14319913e-01 -5.24886072e-01 +1.25442362e+00 +5.27346313e-01 -4.85089362e-01 +9.36886072e-02 -1.65056586e+00 +1.51173174e-01 -6.39723718e-01 +1.76645994e-01 -1.03605822e-01 -6.10679448e-01 +4.60379720e-01 +3.45350146e-01 -9.31725129e-02 +5.37162542e-01 -7.05303922e-02 -2.50916338e+00 +3.14706683e-01 +3.70824754e-01 +2.46950373e-01 -8.61534476e-01 +9.79808569e-01 +4.55591112e-01 -9.12356079e-02 -3.21827561e-01 -1.91212699e-01 +7.00975180e-01 +2.20730558e-01 -6.79371238e-01 +3.28853190e-01 
#Parameter# /_5 {10} 161 ZERO_GRAD
-4.51414138e-02 -6.33542538e+00 -7.38200307e-01 -3.06657195e+00 +7.61103392e-01 -1.90860116e+00 -1.94367182e+00 +4.29119885e-01 +3.36733967e-01 +1.64520741e+00 
#Parameter# /_6 {10,10} 1601 ZERO_GRAD
-4.07690138e-01 -4.58610892e-01 -5.31378865e-01 -5.06296277e-01 -5.70101380e-01 -6.97119355e-01 -7.28150904e-02 -5.45601308e-01 -2.36979628e+00 -1.22268474e+00 -2.75353849e-01 -5.52162886e-01 -2.89850533e-01 -3.77235562e-01 -3.13109934e-01 -3.02777082e-01 -4.60729092e-01 -2.21033752e-01 +2.10970783e+00 -7.54300207e-02 -3.19337100e-01 +1.93841189e-01 -4.67489868e-01 -6.72212064e-01 -1.20588076e+00 -5.21298349e-01 +3.26022506e-02 -4.20459777e-01 -9.40530062e-01 -5.48131049e-01 +1.91422388e-01 -5.48001349e-01 -2.21105441e-01 -6.09185100e-01 -4.42435503e-01 -5.38937330e-01 +1.30072147e-01 -6.94542706e-01 +1.27765477e+00 -4.10043895e-01 +5.78407496e-02 -1.09338187e-01 -1.81651071e-01 -4.89010304e-01 -5.19849479e-01 -2.79322445e-01 +1.56140566e-01 -5.79246700e-01 -1.73389101e+00 -9.03294921e-01 -4.10970390e-01 -6.13245487e-01 +5.70393242e-02 -1.10727660e-02 -1.81433614e-02 +3.05440426e-01 -3.80601704e-01 -5.60418785e-01 +8.24058115e-01 -9.94060159e-01 -5.59679091e-01 -5.80242872e-01 -2.29645461e-01 -5.50752021e-02 +3.59671116e-02 +8.24297667e-02 -2.55079359e-01 -5.22987485e-01 +1.08739662e+00 -5.38603544e-01 -5.86768210e-01 -3.19113731e-01 -3.77718568e-01 -5.42831361e-01 -2.09194958e-01 -7.61567891e-01 -6.53717279e-01 -5.10550916e-01 -1.31351304e+00 -8.19812179e-01 -6.40470460e-02 -8.01701188e-01 -4.25421298e-01 -2.06258580e-01 -4.97672588e-01 -5.95639110e-01 -2.97615170e-01 -5.16127765e-01 -1.21268129e+00 -9.96374130e-01 -5.08653581e-01 -3.99447948e-01 +2.39095166e-01 -5.70340097e-01 +1.49920967e-03 -6.16285682e-01 -5.62298417e-01 -8.05243671e-01 -1.60704648e+00 -8.12933803e-01 
#Parameter# /_7 {10} 161 ZERO_GRAD
-1.58565056e+00 -1.58147597e+00 -2.10428882e+00 -9.30541217e-01 -1.61520207e+00 -1.42953300e+00 -1.34431541e+00 -8.80983591e-01 +9.33832705e-01 -9.18970287e-01 
#Parameter# /_8 {1,10} 161 ZERO_GRAD
+1.31668627e-01 -9.05620635e-01 -1.20156813e+00 +4.24701989e-01 +3.40873480e-01 +3.00975174e-01 +4.15620863e-01 +2.29165211e-01 +1.88871536e+01 -2.76775092e-01 
#Parameter# /_9 {1} 17 ZERO_GRAD
-1.24025459e+01 
#Parameter# /_10 {5,3} 241 ZERO_GRAD
-2.18358326e+01 -1.56449633e+01 -2.20890369e+01 -1.80398960e+01 -1.69734993e+01 -4.78067017e+00 +5.02632952e+00 -4.97829056e+00 +3.16250110e+00 +3.65470409e+00 +1.05825634e+01 -5.94060278e+00 -9.28334713e+00 +8.33478451e+00 -4.65389252e+00 
#Parameter# /_11 {5} 81 ZERO_GRAD
-1.34883428e+00 -1.06957448e+00 -9.82531905e-01 -1.19543660e+00 -9.58527148e-01 
#Parameter# /_12 {5,3} 241 ZERO_GRAD
+1.96258754e-01 +4.55193967e-01 -7.11030483e-01 +3.91117781e-01 -6.43318892e-01 +2.79042512e-01 +9.41243023e-02 -4.47232686e-02 -1.07609399e-01 +3.35475117e-01 -9.22337174e-01 +2.64167964e-01 +3.38500500e-01 -8.36242456e-03 -5.66113174e-01 
#Parameter# /_13 {5} 81 ZERO_GRAD
+3.07884264e+00 +3.45664978e+00 +3.53743720e+00 +3.02780533e+00 +3.27652216e+00 
#Parameter# /_14 {5,3} 241 ZERO_GRAD
+8.42636704e-01 -4.05876607e-01 -3.13912749e-01 +5.77952564e-01 +2.15055659e-01 +7.89184868e-01 +7.64403418e-02 -4.48399454e-01 +7.35956252e-01 -7.79480457e-01 +6.73390627e-02 -1.66988716e-01 -1.37439176e-01 +6.85200691e-01 +1.29013836e-01 
#Parameter# /_15 {5} 81 ZERO_GRAD
+1.48103476e-01 +1.45503497e+00 +1.56776929e+00 -1.56669021e+00 +2.13278842e+00 
#Parameter# /_16 {10,5} 801 ZERO_GRAD
-7.71554649e-01 -6.66058779e-01 +9.99901235e-01 -1.18711090e+00 +2.08062029e+00 -2.34085232e-01 -5.99467158e-01 -9.45976973e-01 -4.24895763e+00 +2.05857769e-01 -7.06768990e-01 -4.33870733e-01 +1.01535606e+00 -8.90484750e-01 +1.10787106e+00 -3.99268657e-01 -4.62104201e-01 -9.59001258e-02 -3.14817142e+00 +3.61527801e-01 -6.79203928e-01 -6.44081593e-01 +5.36818087e-01 -1.07780910e+00 +1.26888907e+00 +1.55697837e-01 -4.63755250e-01 -4.71372940e-02 -3.83700442e+00 -2.98529446e-01 -1.34853795e-01 -1.18790698e+00 +2.62856632e-01 -5.42635798e-01 +1.39779949e+00 -7.75257111e-01 -1.14341915e+00 -4.13217574e-01 -2.89674520e+00 +5.87861180e-01 -5.67321479e-01 -4.00928825e-01 +1.12112963e+00 -1.63029417e-01 +1.67961919e+00 +6.82879537e-02 -6.38009071e-01 -1.06912529e+00 -3.64829922e+00 +3.04955065e-01 
#Parameter# /_17 {10} 161 ZERO_GRAD
-9.95878994e-01 -1.03359675e+00 -3.40867496e+00 -6.00732207e-01 -6.19568348e-01 -1.35338855e+00 -3.54950190e-01 -9.57906425e-01 +6.37233794e-01 +5.19985974e-01 
#Parameter# /_18 {10,5} 801 ZERO_GRAD
+1.28771412e+00 -8.21475208e-01 +1.35917127e-01 +8.77768934e-01 +2.07933784e+00 -7.27583051e-01 +4.94647056e-01 -5.01550436e-02 -4.06079674e+00 +5.84235311e-01 +4.21306729e-01 -5.76328337e-01 -1.00502110e+00 +1.56698227e+00 +1.11997056e+00 -4.66706216e-01 +7.56402612e-01 +2.16153145e-01 -2.38515973e+00 +1.54556304e-01 +2.64140844e-01 -1.22232461e+00 -5.94413400e-01 +3.77362549e-01 +8.34270954e-01 -2.40693972e-01 +1.23329306e+00 +4.21960175e-01 -3.87815022e+00 +6.09683096e-01 +8.73748541e-01 -1.10432756e+00 -3.29604387e-01 +9.17416990e-01 +9.64843154e-01 -4.96370882e-01 +3.60219061e-01 -1.58981055e-01 -2.62824750e+00 +3.57210279e-01 +1.28762341e+00 -3.91290575e-01 -1.00273883e+00 +4.42288518e-01 +1.02012992e+00 +4.64463264e-01 +9.97383058e-01 +1.04465520e+00 -3.48163676e+00 +5.39707169e-02 
#Parameter# /_19 {10} 161 ZERO_GRAD
+4.69746053e-01 -5.68264186e-01 -3.00640130e+00 +1.04502606e+00 +7.34912992e-01 -1.02532673e+00 +6.16857469e-01 +4.52679217e-01 +4.30694893e-02 -9.88555625e-02 
#Parameter# /_20 {10,5} 801 ZERO_GRAD
-2.25318775e-01 -1.64032742e-01 -5.38943172e-01 -1.10339332e+00 +1.70132422e+00 -8.33900511e-01 -5.26213348e-01 +9.12112668e-02 -4.28258467e+00 +5.20017087e-01 -3.27070951e-01 -1.04582655e+00 -3.73590589e-01 -5.31243265e-01 +7.81085730e-01 -4.51957464e-01 -5.66412449e-01 -7.94638574e-01 -3.54630971e+00 +5.72104990e-01 -1.04267085e+00 +9.22836810e-02 +9.32179298e-03 -1.02441204e+00 +1.07411075e+00 -8.63683164e-01 -2.93553591e-01 -8.31281602e-01 -4.34773207e+00 +3.69744658e-01 -5.71209192e-01 -6.93149269e-01 +2.05195490e-02 -6.57964468e-01 +6.13446414e-01 -1.10269678e+00 -9.74339664e-01 -1.16784585e+00 -3.50095129e+00 -4.22676563e-01 -7.06970155e-01 -1.01546168e+00 -5.51347911e-01 -1.01873457e+00 +6.42332852e-01 -1.75355420e-01 -3.67911942e-02 -3.37846488e-01 -3.39752722e+00 +1.36405200e-01 
#Parameter# /_21 {10} 161 ZERO_GRAD
-1.06698823e+00 -7.33263135e-01 -3.39444590e+00 -9.66994822e-01 +1.51154101e+00 -1.37446749e+00 -1.00488579e+00 -9.97806966e-01 +9.84149203e-02 -6.37564957e-02 
#Parameter# /_22 {10,5} 801 ZERO_GRAD
-7.77944028e-02 -5.76847255e-01 +4.96043056e-01 -1.07991230e+00 +1.26259255e+00 +1.13452949e-01 -6.25454724e-01 -9.82546210e-02 -4.46162271e+00 +3.05227041e-01 -2.82362491e-01 -9.07639861e-01 +4.45433557e-01 -6.81059539e-01 +1.37259471e+00 -2.89515883e-01 -7.35628247e-01 -6.75143838e-01 -3.68829656e+00 +8.46285746e-02 -1.07308710e+00 -5.24196208e-01 -5.44370472e-01 -6.02818310e-01 +1.26233494e+00 -1.27621859e-01 -3.65829974e-01 -1.27445996e+00 -3.81404328e+00 -5.77113256e-02 -3.08610588e-01 -7.74853528e-01 +7.24728644e-01 -1.98787868e-01 +1.80622268e+00 -5.79693913e-01 -6.61286354e-01 -2.54430830e-01 -2.73741508e+00 +6.01490259e-01 -6.25217557e-01 -8.36562455e-01 -2.31122553e-01 -5.00079930e-01 +1.02206397e+00 -5.72982192e-01 -2.77564585e-01 -6.60849452e-01 -2.89574456e+00 -1.47018865e-01 
#Parameter# /_23 {10} 161 ZERO_GRAD
-1.30986428e+00 -7.57659137e-01 -3.41036820e+00 -1.22556615e+00 +7.97505915e-01 -1.49352860e+00 -9.19714868e-01 -5.85497499e-01 +5.57427049e-01 +4.74754930e-01 
#Parameter# /_24 {10,5} 801 ZERO_GRAD
-9.00869250e-01 -3.62635016e-01 +3.43296587e-01 -1.53134072e+00 +5.93821406e-01 -3.45448911e-01 -7.96433747e-01 -9.51073349e-01 -3.17753577e+00 -5.30279160e-01 -8.49420965e-01 -1.01669145e+00 -5.84006250e-01 -1.08522594e+00 -2.32054353e+00 -6.62141085e-01 -9.23482120e-01 -9.51872408e-01 -2.38544774e+00 -2.09079161e-01 -4.04831558e-01 -4.02524054e-01 -4.11506623e-01 -1.09305179e+00 -1.57403481e+00 -4.20411795e-01 -1.25192732e-01 -6.08096898e-01 -3.49866629e+00 +3.15754920e-01 -9.84419703e-01 -9.86663103e-01 +5.72568253e-02 -8.95957410e-01 +4.85120952e-01 -5.73366046e-01 -1.40304065e+00 -3.70325387e-01 -2.88921714e+00 +4.30154651e-01 -2.43495837e-01 -3.30412358e-01 -2.64260054e-01 -9.31341648e-01 -1.87529063e+00 -9.23726916e-01 -1.76595792e-01 -6.59891725e-01 -3.30594730e+00 +2.02963874e-01 
#Parameter# /_25 {10} 161 ZERO_GRAD
-9.60564613e-01 -6.13598943e-01 -3.69866061e+00 -1.02450502e+00 -1.28112030e+00 -1.85944712e+00 -7.53426909e-01 -1.06379783e+00 -1.36033261e+00 +3.97733539e-01 
#Parameter# /_26 {10,5} 801 ZERO_GRAD
-1.73506096e-01 -6.15168571e-01 +1.66244185e+00 -4.54345495e-01 +1.62832451e+00 -1.20270705e+00 -5.64261854e-01 -5.66928446e-01 -3.85145688e+00 +5.17398655e-01 -9.30790365e-01 -4.05183703e-01 +6.35236561e-01 -5.92954099e-01 +1.07725990e+00 -9.88068730e-02 -2.13411853e-01 -4.33034033e-01 -2.68054557e+00 +5.45590520e-01 -4.31925654e-01 -1.03159225e+00 +4.79740053e-01 -1.17446125e+00 +1.43282199e+00 -1.06292915e+00 -1.35229081e-01 -1.06157172e+00 -4.12150621e+00 +5.60649395e-01 -7.86742568e-01 -3.19341660e-01 +7.20039964e-01 -1.03970015e+00 +1.33071935e+00 -3.40565562e-01 -5.89753926e-01 -1.02307498e+00 -3.65833020e+00 +1.50702208e-01 -3.66605937e-01 -8.40934634e-01 +7.47727990e-01 -9.66788113e-01 +9.59345579e-01 -7.08785117e-01 -8.53841603e-01 -5.15661418e-01 -3.55849671e+00 +5.67044914e-01 
#Parameter# /_27 {10} 161 ZERO_GRAD
-1.00362718e+00 -7.00461745e-01 -2.63655686e+00 -9.59836245e-01 +6.71278298e-01 -1.01447582e+00 -1.12589657e+00 -1.77617699e-01 +4.85406488e-01 +4.48512167e-01 
#Parameter# /_28 {10,5} 801 ZERO_GRAD
-1.19760968e-01 -6.56557739e-01 -1.51377216e-01 +9.53964531e-01 +1.87198377e+00 +1.00437254e-01 -1.38398993e+00 -9.96270478e-01 -4.07504463e+00 +5.81775308e-01 -1.02597654e+00 -9.89917338e-01 -4.70019370e-01 +4.71663594e-01 +1.20484269e+00 +9.68142211e-01 -2.16023415e-01 -7.44658411e-02 -3.07487917e+00 -3.49040627e-01 -7.44026124e-01 -1.09711611e+00 +8.57432708e-02 +5.59635222e-01 +1.22573698e+00 -8.22284073e-03 -7.36073315e-01 -5.48233867e-01 -3.47717261e+00 +3.33786607e-01 -2.95536488e-01 -7.26596475e-01 +7.18090385e-02 +6.06786728e-01 +1.36949623e+00 +8.21058631e-01 -4.85268176e-01 -1.18822968e+00 -2.45477271e+00 -2.12218836e-01 -2.64688134e-01 -1.56870231e-01 -1.44562170e-01 +1.41931880e+00 +1.25201809e+00 +1.61132231e-01 +4.46334071e-02 -4.11107913e-02 -2.60951090e+00 -2.24900201e-01 
#Parameter# /_29 {10} 161 ZERO_GRAD
-9.68151987e-01 -7.36120462e-01 -3.43104410e+00 +5.72069027e-02 +2.13830143e-01 +6.00283384e-01 -7.59900451e-01 -4.99366283e-01 -8.00472200e-02 -8.52104723e-02 
#Parameter# /_30 {10,5} 801 ZERO_GRAD
-6.91855550e-01 -5.87282896e-01 +5.33768833e-01 -5.38786829e-01 +1.48248279e+00 -5.91152668e-01 -8.80989909e-01 -3.19731772e-01 -4.11576080e+00 +2.08793897e-02 +9.77801979e-02 -2.58111864e-01 +2.82391608e-01 -9.04858351e-01 +1.83751583e+00 +5.23862362e-01 -9.37047154e-02 -8.63683522e-01 -2.91446733e+00 -1.41880214e-01 -3.94607000e-02 -4.21699375e-01 +6.27998471e-01 -1.04738188e+00 +9.62487936e-01 -7.00967729e-01 -3.16065013e-01 -2.15459708e-02 -3.78653741e+00 +5.49892664e-01 -7.54695475e-01 -1.30613124e+00 +3.01913284e-02 -6.52893066e-01 +1.89393771e+00 -5.09793758e-01 -8.67072940e-01 -8.93639266e-01 -3.36484838e+00 +5.71243703e-01 +2.10423484e-01 -1.05541623e+00 +1.13124199e-01 -4.14238870e-01 +9.98460054e-01 -6.13810599e-01 -7.08362639e-01 -7.40099967e-01 -3.48222685e+00 +5.29452085e-01 
#Parameter# /_31 {10} 161 ZERO_GRAD
-7.10093737e-01 -9.18557942e-01 -3.33361244e+00 -8.83648992e-01 +2.06899822e-01 -7.09185600e-01 -7.26540744e-01 -7.42717087e-01 +5.43711960e-01 -3.80630940e-01 
#Parameter# /_32 {10,5} 801 ZERO_GRAD
+5.06503105e-01 -1.15229535e+00 -1.16656756e+00 -3.99285644e-01 +7.20301151e-01 -8.22482169e-01 +7.60804594e-01 -5.48319221e-01 -2.91339087e+00 -1.52891418e-02 +6.67636931e-01 -4.24587160e-01 -1.02488387e+00 -1.71879277e-01 -3.57337046e+00 -6.20272756e-01 +1.17478812e+00 -5.69816351e-01 -2.09051132e+00 +3.44967097e-01 +8.13274741e-01 -1.31752992e+00 -1.03883123e+00 -1.22779799e+00 -2.95149183e+00 -5.31008959e-01 +8.82743597e-01 -2.90387385e-02 -3.73499322e+00 +4.10553128e-01 -2.32147306e-01 -1.01039016e+00 -3.38835001e-01 -1.32306790e+00 +6.34360373e-01 -1.24481118e+00 -6.85214475e-02 -7.16300428e-01 -3.76629639e+00 +3.14539015e-01 +1.18264377e+00 -3.80784631e-01 -1.42002666e+00 -7.44165480e-02 -3.27130747e+00 -7.18660951e-01 +6.07114851e-01 -2.97555119e-01 -1.04439437e+00 +1.06263431e-02 
#Parameter# /_33 {10} 161 ZERO_GRAD
+8.39414373e-02 -1.24093616e+00 -2.82202673e+00 -8.42534482e-01 -1.28943002e+00 -1.57439852e+00 +4.72666472e-01 -5.25586069e-01 -4.83180374e-01 -4.95233089e-01 
#Parameter# /_34 {10,5} 801 ZERO_GRAD
+2.91876048e-01 +1.20781338e+00 -5.78680515e-01 +5.89734554e-01 +9.35080290e-01 -2.16114879e-01 +9.51032758e-01 +3.86256993e-01 -2.49694467e+00 +7.45390868e-03 +1.13436568e+00 +6.90487400e-02 -4.06874806e-01 +6.70553744e-01 -2.36625552e+00 +4.87219952e-02 +1.11994612e+00 +9.17289972e-01 -2.30662775e+00 -1.12445898e-01 +9.93828416e-01 +9.11744833e-01 -7.20519364e-01 +1.63190961e+00 -2.33012462e+00 -4.97834712e-01 +6.20766401e-01 +3.22988540e-01 -2.59300184e+00 +4.70516026e-01 +1.05330610e+00 +9.06558752e-01 -9.14628506e-01 +3.61766815e-01 +6.70357049e-01 -1.00904310e+00 +5.46687901e-01 +1.09555471e+00 -2.31380248e+00 +1.21940762e-01 +4.64760512e-01 +7.09004164e-01 -5.88058591e-01 +5.99545181e-01 -2.39384961e+00 -3.87917638e-01 +1.41231501e+00 +8.76605153e-01 -2.08501625e+00 -6.82996586e-02 
#Parameter# /_35 {10} 161 ZERO_GRAD
+9.95448709e-01 +7.77798235e-01 -2.99499750e+00 +7.51250505e-01 -1.13444734e+00 -1.22760081e+00 +9.34620440e-01 +5.88274717e-01 -1.35765696e+00 -2.68508494e-01 
