#Parameter# /_0 {10,8} 1281 ZERO_GRAD
-1.00938082e-01 +1.33500382e-01 +2.05719218e-01 -6.58616662e-01 +4.22120333e-01 -3.51361364e-01 +2.45944902e-01 -6.71328008e-01 +7.70253092e-02 +3.56083643e-03 +4.82096672e-01 -1.48565423e+00 +1.10519874e+00 -1.55002367e+00 -1.59029317e+00 +3.32888544e-01 +8.16725612e-01 -3.09366989e+00 +1.50840163e+00 +7.34174252e-01 -3.10381889e-01 -3.05922870e-02 +1.52215600e-01 -9.96884882e-01 +2.97664493e-01 +5.84137380e-01 +2.36536428e-01 -1.97938949e-01 +4.18582678e-01 -1.26288965e-01 -4.88029629e-01 +5.13204634e-01 -4.31342155e-01 -1.30530205e-02 +5.31768978e-01 -5.09026468e-01 -2.46723220e-01 +1.24966764e+00 -4.49010164e-01 +5.91609031e-02 -4.62736666e-01 -4.04744357e-01 +2.93423355e-01 +1.91469699e-01 +2.18204916e-01 +2.21060351e-01 -3.32206130e-01 -8.34944129e-01 +6.98870793e-02 +5.52590311e-01 +1.45845622e-01 -1.92661071e+00 +1.66426194e+00 -2.65288372e-02 -2.07583332e+00 +5.45505166e-01 +1.56736612e+00 -2.98655438e+00 +2.74155927e+00 -2.10016906e-01 -2.05548331e-02 +8.16413462e-01 -7.25752831e-01 +1.97314119e+00 +8.31976056e-01 -8.81319582e-01 -7.72527039e-01 +1.56505501e+00 -1.49576497e+00 -3.00401866e-01 +1.99488223e-01 -1.86955631e+00 +1.66113734e+00 -5.95748723e-01 -1.48294652e+00 +9.24585164e-01 +1.66132843e+00 -1.91945881e-01 +3.65076423e-01 +9.60293226e-03 
#Parameter# /_1 {10} 161 ZERO_GRAD
-4.16756630e-01 +6.80018812e-02 -9.10296291e-02 -1.19708657e+00 -3.33687782e-01 +1.81656629e-01 +3.82064462e-01 -1.21762717e+00 +8.57475400e-01 -1.71009958e-01 
#Parameter# /_2 {10,10} 1601 ZERO_GRAD
+8.13072920e-01 +2.24002138e-01 -1.71752527e-01 +7.32697845e-01 +2.85392284e-01 +3.50666285e-01 +3.71852309e-01 +4.21783149e-01 +2.51362413e-01 -4.62580055e-01 +6.89956307e-01 +6.24898672e-01 +1.41141963e+00 +3.15924823e-01 +4.48303550e-01 +1.05946267e+00 +1.97683886e-01 +6.11527741e-01 +1.72482419e+00 +9.20704231e-02 +4.25994396e-01 -3.45863879e-01 -1.39536119e+00 +6.03881776e-01 +1.00828099e+00 -3.46188396e-01 +2.15635017e-01 -4.78577226e-01 -8.24828565e-01 +3.10316950e-01 +3.76661330e-01 +8.03814292e-01 +9.96677399e-01 +5.64416647e-01 +8.30646515e-01 +6.12170994e-01 +6.67852104e-01 +2.18752086e-01 +1.77972293e+00 -4.93028522e-01 +5.20578384e-01 +9.03978169e-01 +1.42824697e+00 +4.29089248e-01 +5.20192683e-01 +3.27457160e-01 +5.64213932e-01 +1.10839739e-01 +2.03419590e+00 +4.25723046e-01 -3.70900244e-01 -2.23879278e-01 -5.78466773e-01 -1.60116941e-01 +1.80168256e-01 -5.55203378e-01 +6.43271923e-01 -2.10656390e-01 -8.82263124e-01 -4.39765155e-01 +7.15022624e-01 +2.63406813e-01 -1.22748256e+00 +5.33604622e-01 +1.10227084e+00 +2.72403121e-01 +5.30690312e-01 +1.17230102e-01 -6.53651536e-01 +1.42987236e-01 +6.81125760e-01 +4.57198530e-01 +9.82543051e-01 +8.63402724e-01 +1.36656135e-01 +5.92977166e-01 +5.26528716e-01 +6.54755473e-01 +2.71022511e+00 +4.92689490e-01 -4.51357335e-01 -3.43293369e-01 -1.30796909e+00 -1.52637109e-01 +4.69424725e-01 -6.58533812e-01 +6.43716812e-01 -5.29412329e-01 -1.67075992e+00 +8.97725765e-03 +5.29619753e-01 +3.49834055e-01 -5.03046989e-01 -4.25667852e-01 -1.89390734e-01 -5.11552930e-01 +4.56551343e-01 -4.75251049e-01 -4.64121997e-01 +4.50137168e-01 
#Parameter# /_3 {10} 161 ZERO_GRAD
+4.78312105e-01 -8.55120923e-03 -7.75857925e-01 +2.63904631e-01 +1.24313295e+00 -4.55483943e-02 +9.48314726e-01 +3.99114817e-01 +2.89399415e-01 +4.09495115e-01 
#Parameter# /_4 {10,8} 1281 ZERO_GRAD
+1.21789017e+01 -4.36832380e+00 +1.17697036e+00 -2.28987432e+00 +2.91948724e+00 -4.03721660e-01 -1.26383674e+00 +3.70018315e+00 +6.21717262e+00 +8.83329391e+00 -9.52435493e+00 +2.41478500e+01 -1.54181833e+01 +1.07084179e+01 -2.30259190e+01 +5.57467222e+00 +1.91107225e+00 -2.22563114e+01 -2.11953487e+01 -2.89028187e+01 +2.47489363e-01 -1.93567085e+00 -1.38500762e+00 -2.06758547e+00 -3.23355466e-01 -2.86578941e+00 -2.11069250e+00 +8.73192251e-01 +6.97678745e-01 +9.38816905e-01 +1.29893990e-02 -2.47415781e-01 +5.76563954e-01 +2.33198881e-01 -2.35103345e+00 +1.34614795e-01 -1.44489706e-01 +2.50650358e+00 -2.19515935e-01 +3.68854582e-01 +4.77369964e-01 +2.14905381e+00 +2.14483574e-01 -4.02908230e+00 -6.16949275e-02 -2.91566420e+00 +4.79932690e+00 +2.84270905e-02 -9.15041342e-02 +2.75006685e-02 -8.70354414e-01 +1.57031083e+00 +8.26897979e-01 -1.20126694e-01 +2.95770586e-01 -1.68431020e+00 -2.15052590e-01 +1.79679334e-01 +5.84427536e-01 +2.30777889e-01 -2.11508930e-01 -2.87631601e-01 +9.75169957e-01 -5.70657670e-01 +2.19982136e-02 +1.09192473e-03 -2.08198166e+00 +3.16483170e-01 -1.40433684e-01 +4.63316500e-01 -9.99053001e-01 -4.28068757e-01 -9.76558477e-02 +5.56476951e-01 -2.02539619e-02 +2.57386267e-01 +2.87931949e-01 +7.82513797e-01 +8.50473106e-01 -2.37401754e-01 
#Parameter# /_5 {10} 161 ZERO_GRAD
-4.14151073e-01 -7.15328646e+00 -7.27451921e-01 -3.29845357e+00 +1.37328458e+00 -2.49038506e+00 -2.96631408e+00 +3.66945148e-01 +8.66332352e-01 +2.13420653e+00 
#Parameter# /_6 {10,10} 1601 ZERO_GRAD
-5.82573116e-01 -6.84004962e-01 -4.57855612e-01 -7.27315962e-01 -7.31773615e-01 -9.10847485e-01 -3.04769665e-01 -7.81703949e-01 -1.77672923e+00 -1.36389720e+00 -1.93915069e-01 -6.42746568e-01 -9.64065433e-01 -3.10745358e-01 -2.08297417e-01 -2.02504456e-01 -5.78841865e-01 -2.38045469e-01 +1.95045781e+00 -1.00878127e-01 -4.37099308e-01 +1.84573621e-01 +5.66835748e-03 -6.91288769e-01 -1.28520513e+00 -5.77422976e-01 -5.49592711e-02 -4.34115559e-01 -1.02138793e+00 -5.51650107e-01 +2.39149079e-01 -6.41956627e-01 -7.96690881e-01 -5.94379425e-01 -3.74635011e-01 -4.71150339e-01 -2.13415734e-02 -7.41259634e-01 +1.21722353e+00 -4.45370466e-01 -9.92009342e-02 -1.63488150e-01 +3.40287626e-01 -5.58528960e-01 -6.17123783e-01 -3.90525460e-01 +4.99389246e-02 -6.34949267e-01 -1.47786462e+00 -9.28349912e-01 -4.10590351e-01 -6.69721723e-01 -1.53709665e-01 -1.37621230e-02 -2.41558781e-04 +3.26381862e-01 -4.35308456e-01 -5.92469096e-01 +9.32577610e-01 -1.01891541e+00 -5.80883384e-01 -6.32629931e-01 -3.54837924e-01 -8.56093243e-02 +1.26326336e-02 +7.20687360e-02 -2.93241799e-01 -5.57225227e-01 +1.64022458e+00 -5.61954319e-01 -7.33644068e-01 -3.46920818e-01 +1.32681713e-01 -6.34914339e-01 -3.37026268e-01 -8.65616858e-01 -7.44235575e-01 -5.71940958e-01 -1.63590574e+00 -8.42906892e-01 -2.36997843e-01 -8.47779691e-01 +7.95438960e-02 -3.04711819e-01 -6.25381231e-01 -7.49250531e-01 -4.27216083e-01 -6.01404667e-01 -1.60281014e+00 -1.03257406e+00 -6.91630363e-01 -4.64339525e-01 +8.72620046e-01 -6.99330270e-01 -1.30027890e-01 -7.94069290e-01 -6.99854791e-01 -9.12664831e-01 -2.28597975e+00 -8.65162194e-01 
#Parameter# /_7 {10} 161 ZERO_GRAD
-1.90532434e+00 -1.99284577e+00 -2.87753630e+00 -1.35760880e+00 -1.85327160e+00 -1.86398208e+00 -1.92319584e+00 -1.33388102e+00 +7.76213229e-01 -1.14884210e+00 
#Parameter# /_8 {1,10} 161 ZERO_GRAD
+3.71871054e-01 -9.07903731e-01 -1.32257867e+00 +1.71086699e-01 +5.26188016e-01 +9.94843483e-01 -8.14845204e-01 +2.39066496e-01 +1.80044193e+01 +3.59225661e-01 
#Parameter# /_9 {1} 17 ZERO_GRAD
-1.21439495e+01 
#Parameter# /_10 {5,3} 241 ZERO_GRAD
-2.85742435e+01 -2.06112766e+01 -2.88387547e+01 -2.37580166e+01 -2.22207203e+01 -8.02743053e+00 +8.65110016e+00 -1.02570353e+01 +6.80040646e+00 +6.46181011e+00 +1.20055599e+01 -6.04166794e+00 -1.06377907e+01 +9.81586838e+00 -4.57936335e+00 
#Parameter# /_11 {5} 81 ZERO_GRAD
-1.24301875e+00 -1.32137978e+00 -9.75115240e-01 -1.79560304e+00 -9.68025863e-01 
#Parameter# /_12 {5,3} 241 ZERO_GRAD
+2.06640556e-01 +4.49983209e-01 -7.12355614e-01 +4.01864827e-01 -6.49809361e-01 +2.88415015e-01 +9.12448093e-02 -4.76696007e-02 -9.66897383e-02 +3.24750304e-01 -1.12189209e+00 +7.39025712e-01 +6.89975679e-01 -1.19834468e-01 +3.79095525e-02 
#Parameter# /_13 {5} 81 ZERO_GRAD
+3.99430323e+00 +2.76304698e+00 +3.13597250e+00 +4.24454355e+00 +2.36150789e+00 
#Parameter# /_14 {5,3} 241 ZERO_GRAD
+1.22230506e+00 +2.96342466e-02 +7.36567825e-02 +1.28916860e+00 +3.27799499e-01 +9.31723475e-01 +1.58081606e-01 -2.89171875e-01 +8.02954376e-01 -7.41246343e-01 -1.67019510e+00 -3.53005677e-01 -4.18733954e-01 +2.66712356e+00 +1.38482109e-01 
#Parameter# /_15 {5} 81 ZERO_GRAD
-3.34115672e+00 +2.93099403e+00 +2.44492221e+00 -3.91986918e+00 +3.65258050e+00 
#Parameter# /_16 {10,5} 801 ZERO_GRAD
-9.70863342e-01 -7.07455158e-01 -8.09803158e-02 -2.61159730e+00 +1.97288644e+00 -6.45839095e-01 -2.23881125e+00 -1.01694858e+00 -4.86272335e+00 +2.04237804e-01 +1.31774867e+00 -5.68657815e-01 -4.17934984e-01 +1.39034599e-01 +1.58489847e+00 -9.36308920e-01 +2.38681912e-01 -2.05645591e-01 -3.81041932e+00 +3.58185410e-01 +1.34268761e+00 -7.74481475e-01 -8.75037134e-01 -1.53867051e-01 +1.72045374e+00 -3.59995574e-01 +1.01557672e-01 -1.53542444e-01 -4.96266556e+00 -3.01695347e-01 -5.04664540e-01 -1.21398091e+00 -4.28220153e-01 -2.04948449e+00 +1.05587673e+00 -1.18840742e+00 -3.35386181e+00 -4.75638986e-01 -3.32329655e+00 +5.86259961e-01 +1.56360865e+00 -5.42639256e-01 -4.11644489e-01 +9.93830621e-01 +2.23474598e+00 -4.78107452e-01 +3.68368268e-01 -1.18412316e+00 -4.25326157e+00 +3.01500887e-01 
#Parameter# /_17 {10} 161 ZERO_GRAD
+7.48334467e-01 -1.41575670e+00 -5.46983290e+00 +1.81019783e+00 -1.87367463e+00 -2.22859073e+00 +1.85756648e+00 -1.12138867e+00 +7.32708871e-01 +5.07664442e-01 
#Parameter# /_18 {10,5} 801 ZERO_GRAD
+1.24734998e+00 -8.79192054e-01 -7.98632354e-02 +9.40351427e-01 +2.17013907e+00 -1.13622606e+00 +6.52358234e-01 -3.78622591e-01 -4.53840017e+00 +5.82635164e-01 +9.71811593e-01 -7.25074530e-01 -1.34372258e+00 +1.88362575e+00 +1.61043346e+00 -1.03371131e+00 +1.15530837e+00 -1.75042555e-01 -2.78345346e+00 +1.51292890e-01 +8.00606251e-01 -1.36994958e+00 -8.87813270e-01 +6.61578774e-01 +1.31023812e+00 -7.84772933e-01 +1.58966637e+00 +3.35101783e-02 -4.38005066e+00 +6.06424987e-01 +7.25981355e-01 -1.14456880e+00 -4.61610138e-01 +9.69653308e-01 +8.94503653e-01 -9.06202078e-01 +4.59824055e-01 -4.76081014e-01 -3.18807745e+00 +3.55663657e-01 +1.89488029e+00 -5.47500253e-01 -1.37790275e+00 +7.77678370e-01 +1.57481134e+00 -1.15447380e-01 +1.43864918e+00 +6.48389459e-01 -3.79251146e+00 +5.05963154e-02 
#Parameter# /_19 {10} 161 ZERO_GRAD
+1.22553480e+00 -1.02201772e+00 -3.73834229e+00 +2.09947920e+00 +6.28699660e-01 -2.00791144e+00 +1.70122933e+00 -2.82426011e-02 -1.02494098e-01 -1.11808330e-01 
#Parameter# /_20 {10,5} 801 ZERO_GRAD
-3.47257137e-01 -2.72368968e-01 -1.15816355e+00 -2.16289902e+00 +1.28964281e+00 -1.13699794e+00 -2.02257895e+00 +2.11039484e-02 -4.75198650e+00 +5.19033730e-01 +1.53965652e+00 -1.28593063e+00 -1.49599040e+00 +6.46647692e-01 +8.60986352e-01 -8.30942452e-01 -3.78915742e-02 -9.00840998e-01 -3.95782304e+00 +5.69651663e-01 +8.16657543e-01 -1.34043306e-01 -1.06914675e+00 +5.02552651e-02 +1.14112687e+00 -1.22750497e+00 +1.15533210e-01 -9.33035016e-01 -5.35319662e+00 +3.67404610e-01 -8.64300966e-01 -7.81321228e-01 -3.50676656e-01 -1.76308525e+00 +5.48030064e-02 -1.40791857e+00 -3.00882959e+00 -1.23243463e+00 -4.00949526e+00 -4.23728377e-01 +1.25383222e+00 -1.26440537e+00 -1.75753522e+00 +2.68009305e-01 +7.88291633e-01 -5.62821507e-01 +7.94006109e-01 -4.47517812e-01 -3.70629025e+00 +1.33942351e-01 
#Parameter# /_21 {10} 161 ZERO_GRAD
+1.05673027e+00 -1.22951567e+00 -5.15842533e+00 +1.69475937e+00 +8.92465889e-01 -2.12862325e+00 +1.38597953e+00 -1.15483952e+00 +1.49148256e-01 -7.37511963e-02 
#Parameter# /_22 {10,5} 801 ZERO_GRAD
-3.52584183e-01 -6.21993601e-01 +1.97192937e-01 -2.63351488e+00 +1.29273796e+00 -2.44792134e-01 -2.35481715e+00 -1.66475594e-01 -5.09420919e+00 +3.03320527e-01 +1.75461447e+00 -1.02049780e+00 -1.60147592e-01 +3.75399888e-01 +1.71207142e+00 -7.35557437e-01 +1.04140965e-02 -7.51882195e-01 -4.23941135e+00 +8.09056833e-02 +9.60500002e-01 -6.29960835e-01 -1.15648365e+00 +3.42798203e-01 +1.57909751e+00 -5.55113614e-01 +2.49556825e-01 -1.34950399e+00 -4.76810122e+00 -6.13257699e-02 -7.51158357e-01 -8.12097728e-01 +6.34053946e-01 -1.83549094e+00 +1.72367668e+00 -9.43825006e-01 -2.92346191e+00 -3.18049490e-01 -3.30134964e+00 +5.99700153e-01 +1.52771223e+00 -9.54600871e-01 -9.00128126e-01 +6.95872724e-01 +1.40875971e+00 -1.02610958e+00 +7.84966588e-01 -7.40749061e-01 -3.35915208e+00 -1.50873810e-01 
#Parameter# /_23 {10} 161 ZERO_GRAD
+4.93029505e-01 -1.14795148e+00 -4.48491335e+00 +1.35669053e+00 +4.99877483e-01 -2.24706221e+00 +1.42301047e+00 -7.35707045e-01 +6.47546709e-01 +4.61769760e-01 
#Parameter# /_24 {10,5} 801 ZERO_GRAD
-2.14794540e+00 -4.05822486e-01 -6.48712441e-02 -1.62179637e+00 +6.94562852e-01 -5.02118945e-01 -2.39998126e+00 -1.00518429e+00 -3.43742371e+00 -5.32552123e-01 -3.85759979e-01 -1.16880858e+00 -1.16499245e+00 -7.36334682e-01 -2.55950165e+00 -8.69176149e-01 -1.22006193e-01 -1.03455961e+00 -2.95343518e+00 -2.13124901e-01 +3.39362100e-02 -5.44854045e-01 -9.73009586e-01 -8.03816736e-01 -1.82013357e+00 -6.14938319e-01 +5.52881777e-01 -6.88283265e-01 -4.17404938e+00 +3.11788797e-01 -2.46505547e+00 -1.01101172e+00 -2.49824896e-01 -9.55025077e-01 +5.70413172e-01 -7.34418869e-01 -3.55382991e+00 -4.17639047e-01 -2.98740101e+00 +4.27992225e-01 +3.82168204e-01 -4.90008146e-01 -8.74931216e-01 -5.57867825e-01 -2.08520555e+00 -1.13675332e+00 +9.29422021e-01 -7.46690750e-01 -3.91248202e+00 +1.98797524e-01 
#Parameter# /_25 {10} 161 ZERO_GRAD
-2.09176227e-01 -1.07083809e+00 -4.50611401e+00 +6.20757222e-01 -1.78601325e+00 -2.30952740e+00 +1.54513764e+00 -1.20077074e+00 -1.95336473e+00 +3.84183645e-01 
#Parameter# /_26 {10,5} 801 ZERO_GRAD
-3.47653240e-01 -6.98107243e-01 +6.13453984e-01 -1.84081423e+00 +1.67416191e+00 -1.49478030e+00 -2.30284071e+00 -6.34225786e-01 -4.74973202e+00 +5.16369998e-01 +9.80113208e-01 -5.73896945e-01 -7.57244468e-01 +5.91787994e-01 +1.46773720e+00 -4.85964358e-01 +5.24221182e-01 -5.36805451e-01 -3.06737471e+00 +5.43332934e-01 +1.46743846e+00 -1.20153546e+00 -8.71922374e-01 -1.02338336e-01 +1.81182599e+00 -1.43582463e+00 +4.79788572e-01 -1.16270936e+00 -5.00859308e+00 +5.58458865e-01 -1.17090178e+00 -3.83419245e-01 +5.13833724e-02 -2.50924444e+00 +1.23094833e+00 -6.38801217e-01 -2.83062935e+00 -1.07988751e+00 -4.31099701e+00 +1.49565160e-01 +1.65673828e+00 -1.01722419e+00 -7.47380316e-01 +3.53745937e-01 +1.40676057e+00 -1.10652423e+00 +1.95038989e-01 -6.24939919e-01 -3.87736392e+00 +5.64694643e-01 
#Parameter# /_27 {10} 161 ZERO_GRAD
+8.80511343e-01 -1.16449535e+00 -4.97167873e+00 +1.84071410e+00 +4.07720387e-01 -1.82821274e+00 +1.09579360e+00 -3.52059305e-01 +3.06296378e-01 +4.37757134e-01 
#Parameter# /_28 {10,5} 801 ZERO_GRAD
-3.24062586e-01 -6.94833815e-01 -5.55779397e-01 +9.50539947e-01 +1.80447197e+00 -1.02774274e+00 -3.01433206e+00 -1.07151139e+00 -4.36621618e+00 +5.79351604e-01 +9.79996324e-01 -1.09803879e+00 -1.07073522e+00 +8.68339479e-01 +1.57863915e+00 -3.96944404e-01 +4.00332719e-01 -2.06212536e-01 -3.91575003e+00 -3.53353649e-01 +1.26420105e+00 -1.20393646e+00 -4.76295650e-01 +8.98508012e-01 +1.58142388e+00 -1.32836568e+00 -2.51219243e-01 -6.78851426e-01 -4.49658728e+00 +3.29567164e-01 -7.02642202e-01 -7.51395941e-01 -1.81972474e-01 +5.65190971e-01 +1.14408064e+00 -3.32143933e-01 -2.61320972e+00 -1.24504435e+00 -2.70428348e+00 -2.14540362e-01 +1.86225545e+00 -2.70229667e-01 -8.01012874e-01 +1.84848559e+00 +1.67946970e+00 -1.21442521e+00 +9.68061209e-01 -1.80651188e-01 -3.42771029e+00 -2.29330420e-01 
#Parameter# /_29 {10} 161 ZERO_GRAD
+5.80377996e-01 -1.12766695e+00 -4.47532988e+00 +1.49418700e+00 -9.04869974e-01 -1.40095556e+00 +1.58900321e+00 -6.96613312e-01 -7.18926489e-01 -9.94630828e-02 
#Parameter# /_30 {10,5} 801 ZERO_GRAD
-8.81986737e-01 -6.39377892e-01 -4.02640365e-02 -2.12982917e+00 +1.53330040e+00 -9.85540807e-01 -2.60363603e+00 -3.80600363e-01 -4.84317350e+00 +1.89546291e-02 +1.59754610e+00 -4.03056026e-01 -6.05466723e-01 +1.70436621e-01 +2.29666448e+00 -1.21925026e-02 +6.69227064e-01 -9.58557785e-01 -3.24883127e+00 -1.45579800e-01 +1.43812299e+00 -5.58994472e-01 -2.11394116e-01 -8.66961926e-02 +1.38162267e+00 -1.21371138e+00 +3.16291064e-01 -1.08839393e-01 -4.68691683e+00 +5.46212137e-01 -1.11977220e+00 -1.34479916e+00 -2.75768816e-01 -2.34541821e+00 +1.79374933e+00 -9.08062696e-01 -3.13028860e+00 -9.48652029e-01 -3.89468575e+00 +5.69430172e-01 +1.82322645e+00 -1.20842171e+00 -8.60092938e-01 +8.02585602e-01 +1.52150381e+00 -1.16337466e+00 +3.66076350e-01 -8.39218020e-01 -3.73162627e+00 +5.25562763e-01 
#Parameter# /_31 {10} 161 ZERO_GRAD
+8.16105425e-01 -1.32138276e+00 -4.75747108e+00 +1.81973422e+00 -1.82392955e-01 -1.71996117e+00 +1.49687862e+00 -8.94920051e-01 +6.53313577e-01 -3.94014210e-01 
#Parameter# /_32 {10,5} 801 ZERO_GRAD
-1.49694905e-01 -1.22076309e+00 -1.66301322e+00 -1.84546018e+00 +5.11807263e-01 -1.06839585e+00 +5.77599704e-01 -6.84255481e-01 -2.93706250e+00 -1.63967907e-02 +1.14461589e+00 -5.92698216e-01 -1.73110688e+00 +6.94463372e-01 -3.77428675e+00 -9.38997328e-01 +1.10618436e+00 -7.60882020e-01 -1.37725174e+00 +3.42429221e-01 +1.27035189e+00 -1.48654091e+00 -1.70760775e+00 -4.66811389e-01 -3.15553856e+00 -8.34639370e-01 +7.57969737e-01 -2.14011997e-01 -3.44502902e+00 +4.08098221e-01 -1.05458355e+00 -1.05479097e+00 -6.87819004e-01 -2.85806584e+00 +4.16756064e-01 -1.49327636e+00 -3.18320990e-01 -8.36746812e-01 -4.70233250e+00 +3.13354790e-01 +1.69996727e+00 -5.57202101e-01 -2.18185663e+00 +9.20427978e-01 -3.46780252e+00 -1.04522336e+00 +6.02365375e-01 -4.94671851e-01 -5.88916987e-02 +8.06404091e-03 
#Parameter# /_33 {10} 161 ZERO_GRAD
+6.50158048e-01 -1.62790620e+00 -4.39241171e+00 +1.70001924e+00 -1.95749712e+00 -2.21241665e+00 +1.37728095e+00 -7.76250362e-01 -1.59070754e+00 -5.05271196e-01 
#Parameter# /_34 {10,5} 801 ZERO_GRAD
+7.96560198e-02 +1.12087953e+00 -8.29828739e-01 +5.90094149e-01 +7.39597797e-01 -5.23103654e-01 +1.06406784e+00 +3.39798242e-01 -2.77461958e+00 +5.03278570e-03 +1.47429347e+00 -2.58424491e-01 -7.91127622e-01 +9.76273060e-01 -2.41753340e+00 -3.70289534e-01 +1.42104161e+00 +8.35377991e-01 -2.43118691e+00 -1.16747789e-01 +1.32215428e+00 +5.85850775e-01 -1.07042241e+00 +1.88221955e+00 -2.38152909e+00 -8.97041142e-01 +8.91635656e-01 +2.48707250e-01 -3.03801823e+00 +4.66285467e-01 +7.75747180e-01 +8.45282912e-01 -1.06026220e+00 +3.62657607e-01 +4.32272613e-01 -1.31979978e+00 +6.28494978e-01 +1.05136096e+00 -2.50728345e+00 +1.19618215e-01 +8.45236003e-01 +3.67969573e-01 -1.01701009e+00 +9.25385475e-01 -2.40774059e+00 -8.17010045e-01 +1.74159563e+00 +7.91399896e-01 -2.17500615e+00 -7.27316961e-02 
#Parameter# /_35 {10} 161 ZERO_GRAD
+1.40895557e+00 +7.66946003e-02 -3.74186730e+00 +1.91853094e+00 -1.82086945e+00 -2.01655674e+00 +1.78759801e+00 +4.44607288e-01 -1.70049155e+00 -2.82644838e-01 
